unsigned char g_model[] = {
  0x20, 0x00, 0x00, 0x00, 0x54, 0x46, 0x4c, 0x33, 0x00, 0x00, 0x00, 0x00,
  0x00, 0x00, 0x12, 0x00, 0x1c, 0x00, 0x18, 0x00, 0x14, 0x00, 0x10, 0x00,
  0x0c, 0x00, 0x08, 0x00, 0x00, 0x00, 0x04, 0x00, 0x12, 0x00, 0x00, 0x00,
  0x18, 0x00, 0x00, 0x00, 0x48, 0x00, 0x00, 0x00, 0x4c, 0x45, 0x00, 0x00,
  0x5c, 0x45, 0x00, 0x00, 0x3c, 0x66, 0x00, 0x00, 0x03, 0x00, 0x00, 0x00,
  0x01, 0x00, 0x00, 0x00, 0x0c, 0x00, 0x00, 0x00, 0x08, 0x00, 0x0c, 0x00,
  0x08, 0x00, 0x04, 0x00, 0x08, 0x00, 0x00, 0x00, 0x17, 0x00, 0x00, 0x00,
  0x04, 0x00, 0x00, 0x00, 0x13, 0x00, 0x00, 0x00, 0x6d, 0x69, 0x6e, 0x5f,
  0x72, 0x75, 0x6e, 0x74, 0x69, 0x6d, 0x65, 0x5f, 0x76, 0x65, 0x72, 0x73,
  0x69, 0x6f, 0x6e, 0x00, 0x18, 0x00, 0x00, 0x00, 0x00, 0x45, 0x00, 0x00,
  0xf8, 0x44, 0x00, 0x00, 0x68, 0x44, 0x00, 0x00, 0xd0, 0x43, 0x00, 0x00,
  0xc0, 0x42, 0x00, 0x00, 0xb0, 0x41, 0x00, 0x00, 0x9c, 0x41, 0x00, 0x00,
  0x84, 0x41, 0x00, 0x00, 0x74, 0x31, 0x00, 0x00, 0x24, 0x31, 0x00, 0x00,
  0x94, 0x30, 0x00, 0x00, 0x84, 0x20, 0x00, 0x00, 0x74, 0x00, 0x00, 0x00,
  0x6c, 0x00, 0x00, 0x00, 0x64, 0x00, 0x00, 0x00, 0x5c, 0x00, 0x00, 0x00,
  0x54, 0x00, 0x00, 0x00, 0x4c, 0x00, 0x00, 0x00, 0x44, 0x00, 0x00, 0x00,
  0x3c, 0x00, 0x00, 0x00, 0x34, 0x00, 0x00, 0x00, 0x2c, 0x00, 0x00, 0x00,
  0x24, 0x00, 0x00, 0x00, 0x04, 0x00, 0x00, 0x00, 0xf6, 0xbb, 0xff, 0xff,
  0x04, 0x00, 0x00, 0x00, 0x10, 0x00, 0x00, 0x00, 0x31, 0x2e, 0x31, 0x34,
  0x2e, 0x30, 0x00, 0x00, 0x00, 0x00, 0x00, 0x00, 0x00, 0x00, 0x00, 0x00,
  0xdc, 0xa3, 0xff, 0xff, 0xe0, 0xa3, 0xff, 0xff, 0xe4, 0xa3, 0xff, 0xff,
  0xe8, 0xa3, 0xff, 0xff, 0xec, 0xa3, 0xff, 0xff, 0xf0, 0xa3, 0xff, 0xff,
  0xf4, 0xa3, 0xff, 0xff, 0xf8, 0xa3, 0xff, 0xff, 0xfc, 0xa3, 0xff, 0xff,
  0x00, 0xa4, 0xff, 0xff, 0x3a, 0xbc, 0xff, 0xff, 0x04, 0x00, 0x00, 0x00,
  0x00, 0x20, 0x00, 0x00, 0xeb, 0x32, 0xfb, 0x44, 0xd7, 0xee, 0xe3, 0x21,
  0xf0, 0xd3, 0x0a, 0x08, 0xe6, 0x27, 0x0d, 0x28, 0xdd, 0x27, 0x19, 0x00,
  0xe0, 0x11, 0xda, 0xef, 0xe7, 0x40, 0x1b, 0xf2, 0xf7, 0x19, 0x04, 0xf4,
  0xe3, 0x28, 0xe4, 0x30, 0x03, 0xe5, 0x01, 0x05, 0xf0, 0x6f, 0x07, 0xe9,
  0xd5, 0xdc, 0xfd, 0x30, 0xe9, 0xf7, 0x16, 0xec, 0x2a, 0xe5, 0x14, 0x02,
  0xda, 0xf9, 0x19, 0xee, 0x1c, 0x13, 0xd7, 0xdf, 0xd8, 0xee, 0xd3, 0xf8,
  0x03, 0x1f, 0xf3, 0xf8, 0xfc, 0xab, 0xf4, 0x04, 0xd8, 0xd3, 0xd8, 0x3f,
  0x31, 0x0a, 0x1a, 0xf3, 0x21, 0x1e, 0x15, 0x25, 0xf2, 0x3b, 0xe0, 0x81,
  0x09, 0xf8, 0x12, 0x2a, 0xdb, 0x10, 0x23, 0x1e, 0x16, 0x0b, 0x0e, 0xf1,
  0x25, 0xc5, 0x2a, 0xff, 0x1d, 0xe0, 0x02, 0x0e, 0xf7, 0x1e, 0xe5, 0xe8,
  0x13, 0xe1, 0xd7, 0x04, 0xfc, 0xf6, 0xd6, 0xc4, 0x2b, 0xec, 0x05, 0xd4,
  0xb0, 0x99, 0xcc, 0x86, 0xf3, 0x90, 0x4a, 0xcb, 0x14, 0xee, 0xb3, 0x9e,
  0xfc, 0xaf, 0x2a, 0x29, 0xf7, 0xb0, 0xf2, 0xca, 0x07, 0x32, 0xc1, 0x0b,
  0xb6, 0xff, 0xfb, 0xdb, 0x3a, 0x1b, 0x2d, 0x1f, 0x54, 0xa9, 0x40, 0x0a,
  0xdf, 0x9d, 0xd9, 0xff, 0x2d, 0xcd, 0xa7, 0xff, 0xc4, 0xad, 0xd0, 0xe9,
  0xab, 0xde, 0x81, 0x38, 0x47, 0xba, 0x9b, 0xb1, 0xf9, 0xc9, 0x33, 0xe0,
  0x28, 0xcc, 0x25, 0xf3, 0xc3, 0xa0, 0xcb, 0xa5, 0x10, 0xc0, 0xaf, 0xf8,
  0x09, 0xa5, 0x00, 0xae, 0xcf, 0x3d, 0x44, 0xc9, 0x27, 0xca, 0x9c, 0xb3,
  0xed, 0x94, 0x38, 0x3a, 0xd4, 0xc9, 0x2d, 0x05, 0xfb, 0xed, 0xde, 0xce,
  0x4f, 0x21, 0xa3, 0x9a, 0xff, 0x23, 0xe1, 0x31, 0x25, 0xd9, 0xa3, 0xe7,
  0xa7, 0x21, 0xcc, 0x99, 0x35, 0x0b, 0xff, 0xc1, 0xd4, 0x15, 0xe4, 0x36,
  0x1a, 0x1b, 0x1b, 0xa3, 0xd2, 0xc7, 0xc2, 0x00, 0xec, 0xf0, 0x06, 0xe7,
  0xfb, 0x0f, 0xf6, 0x02, 0x0a, 0xd9, 0x0b, 0xe5, 0x0b, 0x00, 0xe6, 0xfb,
  0x07, 0xe9, 0xf6, 0xf3, 0xf6, 0x09, 0xed, 0x12, 0xf4, 0x03, 0x01, 0x30,
  0xe8, 0x00, 0xfc, 0xf7, 0x0f, 0x05, 0x0e, 0x0a, 0xec, 0x10, 0x0d, 0xfe,
  0x09, 0xd9, 0x13, 0xf6, 0x11, 0xfe, 0xf7, 0xde, 0xe9, 0xf3, 0xe9, 0xf1,
  0xfa, 0xe7, 0xfe, 0xfb, 0x11, 0x81, 0xea, 0xea, 0xf6, 0x09, 0xfd, 0xe9,
  0x04, 0x09, 0xe5, 0x01, 0x08, 0xeb, 0x03, 0xf4, 0xe5, 0x0c, 0x07, 0xfc,
  0x07, 0xf4, 0xfb, 0x01, 0xef, 0x07, 0xf3, 0xeb, 0x05, 0xeb, 0xf8, 0x09,
  0xf5, 0x14, 0xf2, 0xab, 0xe5, 0x04, 0xf5, 0xe2, 0xf5, 0x03, 0xfa, 0x04,
  0xe7, 0xf6, 0xf1, 0xed, 0x05, 0xc3, 0xe7, 0xfc, 0xfe, 0xe5, 0x10, 0x02,
  0xf0, 0xf5, 0xee, 0x09, 0xf7, 0x0b, 0x04, 0xf6, 0x03, 0xde, 0xed, 0xef,
  0x02, 0xe8, 0x0a, 0x0b, 0x2a, 0xbe, 0x19, 0x02, 0x46, 0xdd, 0xea, 0xc6,
  0x01, 0xe5, 0x13, 0xf7, 0x2e, 0x30, 0xc6, 0x1d, 0x02, 0xf9, 0x3a, 0x91,
  0x18, 0xf8, 0x52, 0xea, 0xd8, 0xc2, 0x36, 0xcf, 0x4d, 0x09, 0xdb, 0xee,
  0xa8, 0xb6, 0xd6, 0x26, 0xba, 0xa4, 0xde, 0xff, 0x8f, 0x9e, 0x33, 0x25,
  0x03, 0x2e, 0x19, 0xe7, 0xa2, 0x02, 0x8f, 0xb2, 0xc3, 0xc9, 0xcd, 0xf7,
  0xd6, 0xe6, 0x35, 0x8b, 0x1b, 0x81, 0xc2, 0x36, 0x32, 0xe3, 0xe3, 0xd0,
  0xa2, 0xa9, 0xcd, 0xe3, 0xfd, 0xe7, 0x34, 0x2f, 0x9c, 0x3b, 0xbc, 0x26,
  0xa9, 0xc6, 0x18, 0xe4, 0xda, 0xbf, 0x0b, 0xc7, 0x2f, 0xef, 0xc6, 0x08,
  0x0a, 0x14, 0xfb, 0x20, 0xc3, 0xc9, 0x49, 0xcb, 0xf2, 0x3f, 0x3e, 0xb6,
  0x04, 0x11, 0xe0, 0x28, 0x6a, 0xed, 0xde, 0x2c, 0xd2, 0x30, 0x12, 0xf9,
  0xf2, 0x21, 0x15, 0x1d, 0xe9, 0x82, 0xd9, 0x93, 0xa5, 0x20, 0x1a, 0x34,
  0xe7, 0xba, 0x07, 0xf3, 0xe5, 0xf9, 0xca, 0xd6, 0x01, 0x17, 0x12, 0xfb,
  0xea, 0x0a, 0x16, 0xee, 0xb8, 0xd4, 0xdf, 0xee, 0xe5, 0x11, 0xea, 0x25,
  0xff, 0xef, 0xd8, 0x81, 0x18, 0x00, 0xfc, 0x0b, 0x2e, 0xf4, 0x1d, 0xee,
  0xdb, 0xd1, 0xdb, 0x09, 0xf4, 0x03, 0xfb, 0x2e, 0xfe, 0xd6, 0x00, 0xe9,
  0xf6, 0x17, 0x13, 0xcf, 0xe8, 0xe5, 0xf8, 0xf8, 0x1f, 0xd6, 0x04, 0x1d,
  0xec, 0x31, 0xeb, 0xeb, 0xf4, 0xec, 0x1f, 0x22, 0xd2, 0xc5, 0xd6, 0x26,
  0xf2, 0x15, 0x08, 0x00, 0x10, 0xdc, 0xc2, 0xd9, 0xe8, 0x19, 0xe1, 0x0f,
  0x37, 0x09, 0x19, 0x04, 0x24, 0xeb, 0x12, 0x4c, 0x15, 0x2c, 0x13, 0x1b,
  0x17, 0xf2, 0xfb, 0x24, 0xe7, 0xc4, 0xeb, 0x32, 0xcc, 0xc2, 0x12, 0x0e,
  0x0c, 0x07, 0xd0, 0xde, 0xd8, 0xdc, 0x09, 0xc3, 0x2c, 0xfe, 0xe4, 0xd9,
  0x04, 0x3d, 0xf2, 0x47, 0x1b, 0xfc, 0xfd, 0x1b, 0x0a, 0x01, 0xfd, 0xef,
  0xf8, 0xfc, 0x08, 0xf4, 0xfd, 0x9e, 0x05, 0x05, 0x06, 0xf5, 0x05, 0xee,
  0xfb, 0xf8, 0x0a, 0xfa, 0xfc, 0xfe, 0x10, 0xfd, 0x05, 0x28, 0xf2, 0x23,
  0x02, 0xe9, 0xf3, 0x0a, 0x04, 0x04, 0x07, 0xed, 0xf9, 0xfe, 0x09, 0xef,
  0x0e, 0x95, 0x08, 0x01, 0x04, 0x0f, 0x0c, 0xee, 0x10, 0xf5, 0x11, 0x0f,
  0x03, 0x02, 0x15, 0x0d, 0xfd, 0x01, 0x10, 0x06, 0xf6, 0xe9, 0x0f, 0x16,
  0x0e, 0x06, 0x09, 0xee, 0x03, 0x05, 0x10, 0xf9, 0x14, 0x06, 0x05, 0x01,
  0x10, 0x10, 0x13, 0xf6, 0x0f, 0x10, 0x02, 0xf5, 0xf8, 0x10, 0x02, 0x05,
  0x07, 0xfa, 0xf7, 0x03, 0x07, 0x0e, 0x08, 0xf6, 0x09, 0xfd, 0x02, 0xfb,
  0xff, 0x09, 0xea, 0x14, 0x0d, 0xe2, 0x10, 0xfe, 0x0c, 0xf8, 0xf4, 0x0a,
  0x07, 0x08, 0xef, 0x12, 0x05, 0x04, 0x09, 0x03, 0x04, 0x81, 0x05, 0xe2,
  0x0e, 0xeb, 0xf1, 0xfd, 0xf6, 0xfb, 0xef, 0x01, 0xf0, 0xf0, 0x03, 0x11,
  0xf0, 0x81, 0x0f, 0x01, 0x09, 0xfc, 0x04, 0x0f, 0xf9, 0x02, 0x00, 0x03,
  0x08, 0xeb, 0xf6, 0x01, 0xed, 0xe6, 0xf9, 0x0c, 0x0b, 0x01, 0xf1, 0xf8,
  0xef, 0xf5, 0xee, 0xf7, 0xf1, 0xf9, 0xf5, 0x02, 0x0c, 0xc5, 0xf3, 0xfd,
  0x05, 0x06, 0xf5, 0xfe, 0xee, 0x04, 0x0e, 0xfb, 0xf6, 0xf3, 0x02, 0xed,
  0x11, 0xd1, 0xf0, 0x12, 0x03, 0x0d, 0xf4, 0x0c, 0x0f, 0x09, 0x0e, 0x09,
  0xf0, 0xf7, 0x08, 0xf4, 0x05, 0xea, 0xfa, 0x00, 0xfd, 0x03, 0x10, 0x05,
  0x05, 0x0a, 0x01, 0x0a, 0x01, 0xf8, 0xfc, 0x10, 0xec, 0x21, 0x08, 0x28,
  0x12, 0xe7, 0x00, 0x04, 0x10, 0xff, 0x02, 0x1b, 0x0f, 0x09, 0xfa, 0x12,
  0xed, 0xdf, 0x04, 0x04, 0x0f, 0x0a, 0x09, 0x08, 0xfa, 0xf0, 0xfb, 0x00,
  0xf0, 0xfe, 0xfb, 0x11, 0x0e, 0x06, 0xfb, 0x25, 0xee, 0x01, 0x0f, 0x08,
  0xc4, 0x24, 0xf5, 0x1a, 0xfd, 0xac, 0x11, 0xd5, 0x02, 0x81, 0xe3, 0xe5,
  0x0c, 0x09, 0xf4, 0xc6, 0xd0, 0xe4, 0xb6, 0xcf, 0xec, 0x25, 0xe6, 0xeb,
  0xe8, 0xbf, 0xce, 0xd9, 0x15, 0x21, 0x10, 0x26, 0xe5, 0xae, 0x13, 0x23,
  0x00, 0x1b, 0xc4, 0x38, 0xba, 0xc3, 0xaf, 0x0e, 0xf6, 0xaf, 0xd5, 0xc5,
  0xcd, 0xfd, 0xfb, 0xb5, 0x31, 0x12, 0xb3, 0xe4, 0xe0, 0x1f, 0x02, 0xf9,
  0xc5, 0x1b, 0xb9, 0x21, 0xe9, 0xbe, 0x24, 0xce, 0xd2, 0x30, 0x02, 0x1c,
  0x16, 0x05, 0x08, 0x98, 0x11, 0xe0, 0xf1, 0xef, 0x04, 0xd3, 0xf4, 0xc2,
  0xec, 0xb6, 0xb4, 0xf1, 0x2c, 0x16, 0x25, 0xd3, 0xea, 0x1e, 0xe4, 0x02,
  0xe9, 0xc0, 0xef, 0xa2, 0xeb, 0xca, 0x1e, 0xc2, 0xe6, 0xe1, 0xc9, 0xa7,
  0xf8, 0x33, 0x20, 0x99, 0x1a, 0x40, 0xe5, 0x16, 0x0c, 0xd4, 0xb0, 0x45,
  0x00, 0x6d, 0x05, 0x46, 0xda, 0xe5, 0xf0, 0xdd, 0xfe, 0x06, 0x0b, 0xff,
  0xf3, 0x03, 0xf5, 0x29, 0xe6, 0x1e, 0x09, 0xef, 0xfe, 0x12, 0xf5, 0xdc,
  0x0a, 0xe6, 0xf3, 0x06, 0x08, 0xe3, 0xf3, 0x0c, 0x02, 0x42, 0xdb, 0x37,
  0xcb, 0xf5, 0xcc, 0xf8, 0xfe, 0x15, 0xda, 0x2a, 0xd1, 0xc9, 0xd7, 0xf9,
  0xef, 0x81, 0xfb, 0xdf, 0xcd, 0xe6, 0x04, 0xf8, 0xd0, 0x11, 0xff, 0xdf,
  0x1a, 0x0b, 0xc7, 0xe3, 0x1b, 0xd7, 0xd4, 0xf2, 0x19, 0x2d, 0x09, 0xca,
  0xea, 0x0c, 0xc8, 0x28, 0x05, 0x02, 0xea, 0xe1, 0xde, 0x11, 0x17, 0xeb,
  0xe3, 0x02, 0xc8, 0xe6, 0x05, 0x1c, 0xfa, 0xed, 0x2f, 0xcc, 0x10, 0xf9,
  0xcb, 0xda, 0xdb, 0x18, 0x11, 0xf0, 0x15, 0xd7, 0xf6, 0xee, 0xc3, 0xdc,
  0xce, 0x14, 0xd7, 0xf2, 0xe0, 0xb6, 0xeb, 0xf0, 0xd7, 0xec, 0xc7, 0xdb,
  0x03, 0xee, 0xf1, 0x15, 0x12, 0xf7, 0x18, 0xe0, 0x1c, 0x08, 0xe7, 0x70,
  0x0f, 0x2f, 0xfe, 0xdc, 0xde, 0xf9, 0x00, 0x24, 0x18, 0x13, 0x17, 0xec,
  0x0f, 0x81, 0xf2, 0xf3, 0x0e, 0xf3, 0x0f, 0x20, 0xea, 0xf3, 0x1a, 0xe1,
  0xd8, 0x15, 0x0b, 0xe2, 0xf8, 0xf0, 0x04, 0xbe, 0xee, 0x17, 0xf9, 0x02,
  0x10, 0x19, 0x0c, 0x33, 0xe1, 0xeb, 0xff, 0xe8, 0x1a, 0x53, 0x05, 0xfb,
  0xda, 0xfe, 0x1f, 0x0a, 0xe1, 0xed, 0x11, 0xf0, 0x10, 0xe8, 0x14, 0x01,
  0xd7, 0xc9, 0xe8, 0xde, 0xde, 0x06, 0x04, 0x13, 0xed, 0x02, 0x00, 0xe9,
  0xf0, 0xdf, 0x12, 0x08, 0xfb, 0xde, 0x1f, 0xeb, 0xfc, 0x16, 0x13, 0xed,
  0xe5, 0x0a, 0x16, 0xde, 0xef, 0x13, 0x0b, 0x13, 0xef, 0x26, 0x08, 0x4f,
  0xea, 0xe7, 0x14, 0xe3, 0x04, 0xff, 0x12, 0x2e, 0x0f, 0xf7, 0x12, 0x0a,
  0x0e, 0xd7, 0x0f, 0x1d, 0xe8, 0xfe, 0x18, 0xf4, 0xea, 0x03, 0xe3, 0xe8,
  0xfc, 0x01, 0xdc, 0x0c, 0xeb, 0xcd, 0xd8, 0x2f, 0xfb, 0x0e, 0xe0, 0x11,
  0x33, 0xb8, 0x9f, 0xb4, 0x2f, 0xc6, 0xbb, 0x2c, 0xc9, 0xad, 0xbd, 0xff,
  0x13, 0x2a, 0xed, 0x32, 0x17, 0x0b, 0xb2, 0xca, 0x00, 0xee, 0xd1, 0xe6,
  0xbe, 0xe7, 0x15, 0xd8, 0xe4, 0x19, 0x9b, 0xc5, 0x02, 0xcb, 0x1b, 0xad,
  0xc2, 0xd5, 0xc5, 0x22, 0xe2, 0x81, 0xc4, 0x2d, 0xe8, 0x27, 0xa9, 0x15,
  0xee, 0xe1, 0x8d, 0x24, 0xda, 0xb2, 0xa6, 0xd1, 0xcf, 0xb7, 0xb0, 0xfe,
  0xab, 0x49, 0x97, 0xe0, 0x38, 0x19, 0xfe, 0xac, 0xb1, 0x1a, 0x49, 0xe9,
  0xda, 0x1a, 0xb9, 0xe7, 0xf2, 0xf3, 0xe2, 0xf8, 0xb8, 0xc2, 0xd0, 0xfb,
  0x4d, 0x11, 0xfa, 0x10, 0x0f, 0xa4, 0xc6, 0x01, 0xcb, 0xd9, 0xe7, 0x32,
  0x18, 0xe0, 0x02, 0xc7, 0x3b, 0x04, 0x1c, 0x1a, 0xd2, 0x98, 0x1c, 0xf3,
  0xb8, 0xe1, 0x2d, 0xbd, 0x97, 0xce, 0x19, 0x0d, 0xbd, 0x06, 0x00, 0x44,
  0xdc, 0xf4, 0xec, 0x8e, 0x0a, 0x0e, 0xa6, 0xcc, 0xd8, 0xaf, 0xff, 0xf5,
  0x27, 0xf8, 0xcc, 0x29, 0xf4, 0xdb, 0x21, 0xe4, 0xc6, 0xc8, 0x2a, 0xf0,
  0x14, 0x2f, 0x24, 0xbc, 0xc2, 0xf2, 0x13, 0xb6, 0xe6, 0x81, 0xc8, 0x01,
  0xb0, 0x26, 0xdd, 0xe3, 0x05, 0xc8, 0xa7, 0xb4, 0x39, 0xf4, 0x22, 0xf0,
  0xfb, 0xa0, 0xcc, 0xb8, 0x1b, 0x23, 0x95, 0x9d, 0x9c, 0x3a, 0x17, 0xe9,
  0x3b, 0x9e, 0x31, 0x17, 0xf6, 0xd1, 0xa7, 0xa3, 0x2f, 0xdd, 0x29, 0xf1,
  0xd2, 0xaf, 0xf0, 0x0c, 0x03, 0xcc, 0x38, 0xc6, 0x31, 0xaf, 0xbc, 0xaf,
  0xe2, 0x31, 0xd9, 0xaa, 0x8f, 0xfd, 0xd8, 0xd9, 0x47, 0xbc, 0xb4, 0x56,
  0xc7, 0x03, 0x0a, 0xce, 0x1f, 0xf6, 0xa4, 0x9a, 0xd2, 0x04, 0x13, 0x9d,
  0xa5, 0x23, 0xba, 0x17, 0x2e, 0x9b, 0xe0, 0x99, 0xce, 0xda, 0xac, 0xdb,
  0xbc, 0x0a, 0xf5, 0x10, 0x2d, 0xc5, 0x1e, 0x35, 0xca, 0x13, 0xeb, 0xf7,
  0xae, 0x29, 0xb7, 0x22, 0xdf, 0x20, 0xf8, 0xfa, 0xee, 0xff, 0xf4, 0xee,
  0x18, 0xe7, 0xf4, 0xda, 0x20, 0xfc, 0x30, 0x0b, 0xfe, 0x11, 0x19, 0x2a,
  0x0b, 0x10, 0xf3, 0x1d, 0xef, 0x2c, 0x07, 0xe6, 0x0d, 0xe8, 0x16, 0x1e,
  0xe2, 0x0e, 0x1a, 0x09, 0xe6, 0xea, 0x06, 0x12, 0xfa, 0xd4, 0xf3, 0xe3,
  0x29, 0x27, 0x00, 0xf4, 0x29, 0xf5, 0xe9, 0xfb, 0xd6, 0x17, 0xed, 0x0b,
  0x21, 0x27, 0x0e, 0x12, 0xdc, 0x11, 0x19, 0xee, 0x03, 0x0b, 0x0b, 0xd7,
  0x16, 0xec, 0xfd, 0xeb, 0x1e, 0xf0, 0xf7, 0xf9, 0x09, 0xf5, 0xe8, 0xf7,
  0x26, 0xe6, 0x11, 0x23, 0xfb, 0x02, 0x02, 0x20, 0xe9, 0x81, 0x13, 0x42,
  0x13, 0x13, 0xf7, 0x0d, 0x03, 0xea, 0x23, 0xe5, 0x0f, 0x13, 0x09, 0xfc,
  0xf0, 0x1f, 0xf2, 0xef, 0x23, 0xff, 0x04, 0xec, 0x12, 0xe0, 0x29, 0xf8,
  0xf1, 0x05, 0x03, 0xe0, 0xed, 0xd4, 0x1c, 0x1e, 0xfa, 0xf9, 0x1a, 0xfd,
  0xcd, 0xb7, 0xf6, 0x36, 0xfd, 0x03, 0x02, 0xad, 0x27, 0x9a, 0xbc, 0xa8,
  0xf9, 0xe3, 0xa9, 0xf0, 0xe4, 0x0f, 0xcc, 0x2c, 0xf8, 0xf0, 0x2a, 0xb9,
  0x24, 0x05, 0x08, 0x05, 0x04, 0x32, 0x27, 0x0c, 0xe6, 0xae, 0xbc, 0xc6,
  0xf3, 0xb1, 0x1b, 0xec, 0xca, 0x02, 0x9a, 0xbc, 0x14, 0xa0, 0x0c, 0x04,
  0x07, 0xdf, 0xe3, 0x28, 0xed, 0xf5, 0xdb, 0x3c, 0xe4, 0x03, 0xa5, 0xb1,
  0xe6, 0x36, 0xfe, 0xc0, 0xc0, 0xe6, 0xa7, 0x1c, 0x1f, 0x24, 0xe3, 0x35,
  0xa1, 0x03, 0x28, 0xab, 0xaf, 0xeb, 0xf4, 0xfa, 0x18, 0xf1, 0xb2, 0xba,
  0x3f, 0xb2, 0xe5, 0xf0, 0xaa, 0x8a, 0x30, 0xbe, 0xb4, 0xc2, 0xa2, 0xef,
  0xfa, 0xbc, 0x07, 0xe1, 0x16, 0xf6, 0x05, 0xb9, 0xe9, 0xd3, 0x18, 0xbb,
  0xa5, 0xd8, 0x17, 0xee, 0xe6, 0x22, 0x9b, 0x22, 0x29, 0xf2, 0xc6, 0x49,
  0x3e, 0xe3, 0xe0, 0x81, 0x15, 0x32, 0x10, 0xc5, 0x1c, 0x05, 0x95, 0x17,
  0x1b, 0x4c, 0x16, 0x16, 0xce, 0x06, 0xd0, 0xa4, 0xf2, 0x32, 0x04, 0xbc,
  0xbf, 0xeb, 0xea, 0xa8, 0xe4, 0x91, 0x2d, 0xfb, 0xc4, 0xb6, 0xec, 0xfb,
  0xe2, 0x42, 0x12, 0xbf, 0x3f, 0x2b, 0x1b, 0x19, 0xea, 0x27, 0xe8, 0xe1,
  0xda, 0xe6, 0xc5, 0xc9, 0x34, 0x16, 0xcc, 0xb2, 0x0e, 0x0a, 0xcf, 0xde,
  0x21, 0x94, 0xeb, 0x0c, 0x05, 0xdb, 0x0f, 0xcb, 0xd9, 0xbd, 0xfd, 0xc1,
  0xd7, 0x04, 0x1e, 0x30, 0x5a, 0x21, 0x03, 0x31, 0x2a, 0xb4, 0xa9, 0x3b,
  0xc5, 0xe4, 0xd5, 0xe4, 0xfc, 0xde, 0xf5, 0x0a, 0x0b, 0xfd, 0x14, 0x3e,
  0x24, 0xea, 0xc6, 0xf1, 0xfb, 0xc5, 0xb5, 0xab, 0xe1, 0x98, 0xb4, 0xec,
  0x51, 0xa3, 0x2b, 0x4f, 0xd4, 0x9f, 0xf9, 0xeb, 0x2b, 0x1a, 0x9f, 0xfd,
  0x93, 0xea, 0x33, 0x93, 0x0e, 0x08, 0xfe, 0xec, 0xe2, 0x14, 0x38, 0x81,
  0x2b, 0xde, 0x93, 0xf0, 0xff, 0x0b, 0xfc, 0xfb, 0xf6, 0x07, 0xe5, 0x12,
  0xfd, 0xcd, 0x09, 0xed, 0xf4, 0xe8, 0x1c, 0xf7, 0x06, 0x18, 0xeb, 0x12,
  0xef, 0xe0, 0xe0, 0xfd, 0xdf, 0x00, 0xdd, 0xfe, 0xea, 0xee, 0x17, 0x15,
  0x0b, 0xf4, 0x06, 0x2a, 0x12, 0xdd, 0x0d, 0xf9, 0x10, 0x28, 0xf3, 0xf2,
  0xf7, 0x0f, 0xe8, 0xf5, 0xee, 0x28, 0x19, 0xe9, 0xec, 0x19, 0x10, 0xe0,
  0x0f, 0xda, 0xe9, 0x22, 0x04, 0xf1, 0xe8, 0xe2, 0xf4, 0xec, 0x08, 0xfb,
  0xf9, 0x20, 0xfd, 0xe5, 0x17, 0x30, 0xfd, 0x07, 0xfe, 0xf4, 0x14, 0x06,
  0xf3, 0xdc, 0xf9, 0x00, 0x26, 0xe6, 0xfb, 0xea, 0x1a, 0x48, 0xf4, 0xb7,
  0xdc, 0xeb, 0xe2, 0xee, 0xf3, 0xf4, 0x19, 0xfb, 0xff, 0xe0, 0x0f, 0xdd,
  0xe1, 0x01, 0xe2, 0x10, 0xf2, 0xf8, 0x12, 0xe9, 0x18, 0xef, 0x1b, 0xfa,
  0x01, 0xe5, 0x20, 0x1f, 0x09, 0x81, 0x0d, 0x44, 0x1c, 0x31, 0x20, 0x17,
  0x17, 0xf0, 0x06, 0xed, 0xfd, 0x09, 0x00, 0xed, 0x14, 0x81, 0x17, 0x14,
  0xf1, 0xd9, 0xfc, 0x24, 0xed, 0x08, 0xf8, 0xda, 0xdf, 0xd7, 0x14, 0xe7,
  0x0d, 0x55, 0xf1, 0xfc, 0xf9, 0x21, 0xd8, 0xd7, 0xfd, 0x16, 0xe7, 0x2c,
  0x03, 0xe9, 0x25, 0x0a, 0x1a, 0x0b, 0xd5, 0x0c, 0x02, 0xef, 0x09, 0xf7,
  0x1a, 0x07, 0xe7, 0xe3, 0xfb, 0xe7, 0x1a, 0x00, 0xf8, 0x41, 0xe6, 0xff,
  0x12, 0x0a, 0xdc, 0xd6, 0xe5, 0xfb, 0xf3, 0xfd, 0xf3, 0xe8, 0xe5, 0xf7,
  0xda, 0x30, 0x08, 0xf5, 0x02, 0x07, 0x0e, 0x0f, 0xec, 0x02, 0xfa, 0x1a,
  0xf1, 0xe6, 0xfc, 0xf3, 0xee, 0x25, 0xfd, 0xc2, 0x0a, 0x23, 0xe9, 0xe9,
  0xf2, 0xfb, 0x07, 0xf5, 0xe4, 0xf8, 0x1b, 0x12, 0x0d, 0x2b, 0xee, 0xf2,
  0xee, 0x14, 0xe3, 0x0b, 0x03, 0xf6, 0xf0, 0xd9, 0xfa, 0xdf, 0xd2, 0xfd,
  0x05, 0xe7, 0x1e, 0xee, 0x1e, 0xe7, 0xf1, 0x0f, 0xe6, 0xe0, 0x21, 0xaf,
  0xc7, 0xf1, 0xf8, 0x23, 0xff, 0xe0, 0xf1, 0xc3, 0x9e, 0xbd, 0xdd, 0xf7,
  0xbd, 0xc8, 0xf2, 0xb8, 0xfe, 0xfe, 0xcc, 0xeb, 0x19, 0xc4, 0x91, 0xf2,
  0x33, 0x32, 0xd7, 0xcc, 0x10, 0xc5, 0xa1, 0x03, 0xec, 0x99, 0x36, 0x30,
  0xbe, 0xf3, 0xc9, 0x19, 0xac, 0xb2, 0x16, 0x14, 0x28, 0x42, 0x1b, 0x87,
  0x13, 0xac, 0xe4, 0xb9, 0x09, 0x81, 0xf0, 0xff, 0xd9, 0x0f, 0xb4, 0x33,
  0x21, 0x08, 0xcb, 0x92, 0x41, 0xf0, 0x0a, 0xa9, 0xbb, 0x0d, 0xe8, 0xe0,
  0xda, 0x15, 0xea, 0xb3, 0xb7, 0x39, 0xaf, 0x8c, 0xd7, 0x9f, 0xd8, 0x4d,
  0xe4, 0xda, 0xdf, 0x07, 0x28, 0xfe, 0x97, 0x95, 0x45, 0x24, 0xe6, 0xf1,
  0x40, 0x2f, 0xf4, 0xf7, 0xac, 0xfa, 0x22, 0xbc, 0x0b, 0xa7, 0xb2, 0xf8,
  0xd1, 0x0c, 0x09, 0xc9, 0xf7, 0x24, 0xdc, 0xdb, 0x2c, 0x0c, 0xce, 0xdc,
  0xef, 0x1d, 0x9f, 0x99, 0xd2, 0x0f, 0xe9, 0x35, 0xd7, 0x1b, 0xf5, 0x25,
  0xdb, 0x6b, 0xeb, 0x03, 0xcf, 0x01, 0xf7, 0xf9, 0x17, 0x16, 0x16, 0x2a,
  0xad, 0x20, 0x20, 0x15, 0x2e, 0xc2, 0x09, 0x02, 0x29, 0xf1, 0xe0, 0x25,
  0x34, 0x1e, 0xfd, 0xe1, 0xce, 0xd1, 0x24, 0x33, 0xf5, 0xe5, 0xeb, 0x11,
  0x30, 0x2d, 0x19, 0x11, 0x10, 0x16, 0x2b, 0xf0, 0xeb, 0x05, 0x15, 0x06,
  0xde, 0x81, 0xde, 0x28, 0x18, 0xf1, 0xf2, 0xf0, 0xf8, 0x57, 0xd7, 0x0a,
  0xd4, 0x0b, 0x13, 0xee, 0xcf, 0xdd, 0xf5, 0x10, 0x0a, 0xdd, 0xf4, 0x44,
  0xfe, 0x40, 0x32, 0xf8, 0x09, 0xfc, 0xf7, 0x0c, 0xdd, 0xef, 0x25, 0x9c,
  0x14, 0xef, 0x05, 0x16, 0xd1, 0xeb, 0xf6, 0x0c, 0x14, 0xff, 0x0e, 0x11,
  0x0e, 0xd5, 0x0a, 0x44, 0x17, 0xe5, 0xe6, 0xed, 0x24, 0xdf, 0xdd, 0xec,
  0xea, 0xff, 0xe6, 0xda, 0xd1, 0x23, 0x10, 0xe5, 0x31, 0x0b, 0x0e, 0xce,
  0x07, 0xe4, 0xec, 0xde, 0xd7, 0xc8, 0x04, 0x16, 0xf4, 0x40, 0x1d, 0x17,
  0xe0, 0xb9, 0xe0, 0xcb, 0x28, 0x1e, 0xee, 0xc9, 0x0e, 0xbc, 0xcd, 0xf1,
  0xe5, 0xab, 0xd4, 0xb3, 0xdb, 0xfe, 0xd6, 0xfb, 0x04, 0xfc, 0x03, 0xcb,
  0xcf, 0xf9, 0x1e, 0xef, 0xbd, 0xa2, 0xf3, 0xd4, 0xc3, 0xde, 0x14, 0xd4,
  0x12, 0xed, 0xd0, 0x01, 0xd9, 0x0e, 0xca, 0xf4, 0x1d, 0xaf, 0xe5, 0x81,
  0xd9, 0x20, 0xeb, 0xdd, 0xdb, 0xda, 0xc5, 0xf3, 0xd2, 0xce, 0xfb, 0xf0,
  0xcf, 0x1e, 0xd3, 0xce, 0xe9, 0xfc, 0xf1, 0x05, 0x12, 0x33, 0xe0, 0x15,
  0x02, 0xe0, 0x0c, 0xdd, 0x09, 0xf7, 0xd5, 0xf0, 0xc6, 0x16, 0xf6, 0xf1,
  0xde, 0xd2, 0x0d, 0xd3, 0x0a, 0x0e, 0xcc, 0x13, 0x1b, 0x48, 0xec, 0x14,
  0xf9, 0x17, 0x1c, 0xc0, 0xd0, 0x2b, 0x10, 0x06, 0x15, 0xd6, 0x1e, 0xeb,
  0x14, 0x2b, 0xfa, 0x4b, 0x1b, 0x1f, 0xea, 0x11, 0xfd, 0xfa, 0xfb, 0x06,
  0xf7, 0x0c, 0xe9, 0xf9, 0x0b, 0xfb, 0xf6, 0x07, 0xf9, 0xfb, 0x01, 0x16,
  0x0f, 0xea, 0x09, 0xf5, 0x04, 0x04, 0x08, 0x09, 0xf7, 0x81, 0x07, 0x07,
  0x0e, 0x02, 0x0f, 0x0f, 0xff, 0xeb, 0xf9, 0xf5, 0xe6, 0xf5, 0x01, 0x11,
  0xed, 0xf6, 0xfa, 0xf5, 0xf7, 0xff, 0x11, 0x0f, 0xff, 0x04, 0xeb, 0x07,
  0x0f, 0x07, 0xf1, 0xfe, 0x07, 0xd2, 0xf2, 0x0a, 0xeb, 0x10, 0xf6, 0xf2,
  0xf8, 0x0e, 0x01, 0x02, 0xef, 0xfa, 0x0e, 0xfd, 0xef, 0x2d, 0xfe, 0xf0,
  0xf4, 0xf8, 0xfb, 0x01, 0xf5, 0xf0, 0xf8, 0x05, 0x12, 0xfb, 0xfb, 0xf4,
  0xf6, 0x2e, 0xf5, 0x35, 0x05, 0xfc, 0xf8, 0xeb, 0xfd, 0xfe, 0x08, 0xf3,
  0x0a, 0xf7, 0x03, 0xf3, 0xec, 0xf2, 0x0a, 0xfd, 0xfe, 0xfe, 0xf2, 0x00,
  0x0b, 0x0c, 0x0f, 0xea, 0x08, 0x0a, 0xed, 0xfb, 0x04, 0x18, 0xed, 0x08,
  0x07, 0x0f, 0xec, 0x09, 0xec, 0x37, 0x26, 0x9a, 0x1e, 0x2e, 0xf6, 0xc0,
  0x8d, 0xdd, 0xb7, 0xe6, 0x89, 0x29, 0x9d, 0x1a, 0xa9, 0x15, 0xa0, 0x2a,
  0xff, 0xf0, 0x0f, 0x0d, 0x1c, 0xcb, 0x30, 0x0d, 0xf7, 0xe3, 0xcd, 0x13,
  0xd0, 0xee, 0xcb, 0xf3, 0x32, 0x9b, 0xbc, 0xcb, 0x03, 0xa3, 0xca, 0xa0,
  0x17, 0xc3, 0xb0, 0xea, 0xe6, 0xfd, 0x0e, 0xdf, 0xe8, 0xbf, 0x94, 0xdb,
  0xb3, 0xed, 0xf6, 0xd9, 0xbf, 0x08, 0xb9, 0xdf, 0x13, 0x2f, 0x20, 0xd9,
  0x31, 0xc1, 0xf5, 0xc4, 0xdb, 0xd1, 0x9c, 0x87, 0xfc, 0x1a, 0xde, 0x90,
  0xa0, 0xb6, 0xef, 0xe6, 0xd4, 0xa9, 0xba, 0x10, 0xde, 0xe7, 0xd3, 0x81,
  0xb7, 0x46, 0xee, 0x9e, 0x34, 0x9d, 0xa1, 0xe0, 0xf3, 0xbd, 0xd4, 0xcd,
  0x91, 0x9e, 0xba, 0xcf, 0x17, 0xe8, 0xe2, 0xce, 0xdf, 0xe3, 0x09, 0xb4,
  0xd3, 0xc7, 0x30, 0xd9, 0xe8, 0x9d, 0x15, 0xc8, 0xb8, 0x8c, 0x00, 0xb5,
  0xd9, 0x2f, 0xe4, 0x03, 0xd1, 0x26, 0x25, 0xe3, 0xf4, 0xc2, 0x13, 0x3d,
  0x26, 0xdc, 0xdf, 0x3b, 0x07, 0x30, 0xf5, 0xc5, 0xdc, 0x29, 0xf8, 0x06,
  0x2a, 0x81, 0x20, 0x06, 0xee, 0x1d, 0x0c, 0xcd, 0x07, 0x22, 0xdc, 0x40,
  0x26, 0xd9, 0xf9, 0x21, 0x33, 0xea, 0x0b, 0xeb, 0xe2, 0xd6, 0x0d, 0xfb,
  0x07, 0xd7, 0xe4, 0xdf, 0xe7, 0xfb, 0xed, 0xd3, 0xeb, 0x64, 0xfe, 0x2b,
  0x2f, 0x0a, 0xda, 0xd6, 0xdb, 0x2f, 0x29, 0xe9, 0xdd, 0x12, 0xd3, 0x16,
  0xe3, 0xb5, 0xd5, 0x17, 0x02, 0xde, 0x2e, 0xf3, 0x1f, 0xe8, 0x08, 0xd9,
  0xd3, 0x0a, 0xfa, 0xdd, 0xed, 0xf6, 0x27, 0xbb, 0x0e, 0x1c, 0x0a, 0x12,
  0x11, 0xfb, 0x10, 0x21, 0xce, 0xe2, 0xd7, 0x18, 0xcb, 0x3d, 0x03, 0x11,
  0xe2, 0xf1, 0xd8, 0x3b, 0x06, 0x19, 0xf2, 0x23, 0x0d, 0x3b, 0x16, 0x11,
  0xf6, 0x23, 0xfa, 0xb2, 0x26, 0x07, 0x22, 0xe5, 0xdc, 0x0c, 0x15, 0xe8,
  0xe0, 0xd6, 0xf8, 0xd6, 0x18, 0xc9, 0x05, 0xd6, 0xf7, 0xf6, 0x09, 0x2b,
  0xec, 0xe0, 0x0f, 0xeb, 0x00, 0xcb, 0xcf, 0x28, 0x1b, 0x02, 0x0e, 0xfd,
  0xd9, 0xe8, 0xe7, 0xe2, 0xfe, 0xc5, 0xc1, 0xe4, 0x04, 0xf3, 0x0e, 0x11,
  0xd4, 0xc6, 0xcb, 0x2e, 0xd7, 0xd1, 0xdc, 0x13, 0xe1, 0x1d, 0x1b, 0xe8,
  0xf9, 0xe9, 0xe5, 0x0f, 0xed, 0xe7, 0xcb, 0x1c, 0xf9, 0xf8, 0xcf, 0xd7,
  0x06, 0xdb, 0xfa, 0x32, 0xe4, 0xe9, 0x1c, 0xfc, 0x02, 0xdf, 0x08, 0xf8,
  0xc1, 0xee, 0xcf, 0xd9, 0xcf, 0x12, 0xc0, 0xbf, 0x17, 0xdc, 0xfd, 0xd6,
  0x0b, 0xee, 0xf0, 0x66, 0xcb, 0x14, 0xec, 0xfd, 0x02, 0xdb, 0xd1, 0xf0,
  0x0c, 0xff, 0xd5, 0x01, 0xdb, 0x48, 0xfc, 0xff, 0xdd, 0x09, 0xc8, 0x2d,
  0xda, 0x34, 0xc0, 0x08, 0x09, 0xee, 0xf8, 0xfc, 0xea, 0x30, 0xcc, 0x7f,
  0xed, 0x05, 0xe2, 0xf6, 0xd3, 0xb0, 0x19, 0xa4, 0xea, 0xfd, 0xd5, 0xeb,
  0xde, 0xef, 0xc8, 0xf8, 0xc9, 0x04, 0xce, 0xfc, 0xcb, 0x14, 0x0a, 0xad,
  0xee, 0xfe, 0xec, 0x2c, 0xb8, 0xaa, 0xdd, 0xf5, 0xbf, 0xc0, 0xfa, 0xe3,
  0xe0, 0xb8, 0xe4, 0xe8, 0xbb, 0xc4, 0x11, 0xcc, 0x0a, 0x08, 0xee, 0x03,
  0xed, 0xd7, 0xc6, 0xe7, 0x18, 0xda, 0xf0, 0xe0, 0xce, 0xf1, 0xfd, 0x2d,
  0xb6, 0x15, 0xf9, 0xe0, 0xfe, 0xc1, 0xe5, 0x16, 0x1b, 0xc0, 0xf4, 0xd6,
  0xe0, 0xe4, 0x0b, 0xc9, 0xe5, 0xc8, 0xf2, 0xd5, 0xee, 0xc5, 0x24, 0xb3,
  0xdb, 0xe4, 0xd3, 0x04, 0xfd, 0xae, 0xbc, 0xf2, 0x35, 0x13, 0x1d, 0xa8,
  0xec, 0xdb, 0xb0, 0xf9, 0xce, 0xc8, 0xdf, 0x0b, 0x33, 0x23, 0xf9, 0x06,
  0xe6, 0x81, 0xb8, 0xf2, 0x1a, 0xbf, 0xbc, 0xcd, 0xe9, 0x02, 0xd5, 0xad,
  0xc7, 0xe1, 0xbd, 0x00, 0xd0, 0x05, 0x02, 0xe2, 0x1e, 0xea, 0xff, 0xc0,
  0xe8, 0x28, 0x15, 0xda, 0xdf, 0xd8, 0xd8, 0xe4, 0xe1, 0x7f, 0x44, 0xf9,
  0x31, 0xdb, 0xfe, 0x1e, 0x2b, 0xf4, 0x1d, 0x11, 0xfa, 0x0f, 0x24, 0xdf,
  0xea, 0x32, 0xfc, 0x5b, 0x1a, 0x1d, 0x0b, 0x26, 0xd0, 0xf2, 0x00, 0x18,
  0x24, 0xd7, 0x26, 0x0c, 0xf1, 0x44, 0x07, 0xfd, 0x1f, 0x10, 0x54, 0xf7,
  0x3c, 0xf0, 0x69, 0x3d, 0xea, 0x05, 0x50, 0xce, 0x11, 0x03, 0x20, 0x63,
  0x06, 0x0a, 0x09, 0x17, 0x29, 0x08, 0xee, 0x07, 0xd5, 0xe8, 0xf4, 0xf5,
  0x01, 0x3c, 0x08, 0x30, 0x18, 0x13, 0xcd, 0xe2, 0xeb, 0x39, 0x1a, 0x07,
  0xe1, 0xf9, 0x31, 0xd9, 0x08, 0xb2, 0x25, 0xf1, 0xcd, 0x1a, 0x0f, 0x16,
  0x22, 0x0b, 0x18, 0xfd, 0xd0, 0xdc, 0x14, 0xf6, 0xe9, 0x3b, 0xf0, 0x11,
  0xf1, 0xf8, 0x1d, 0xe3, 0x03, 0xe7, 0x02, 0xe0, 0x3e, 0x04, 0xe3, 0x21,
  0xe8, 0xd4, 0xfb, 0xfc, 0x1b, 0xff, 0xe2, 0x22, 0xf5, 0xff, 0xe4, 0xed,
  0x0a, 0xf3, 0xf5, 0xf2, 0xf0, 0xdf, 0x04, 0x08, 0xfb, 0xe4, 0x12, 0x12,
  0xfa, 0xea, 0xe6, 0xeb, 0x0b, 0x15, 0xf2, 0x19, 0x1a, 0xde, 0xf2, 0xc3,
  0x12, 0x05, 0xe6, 0xf0, 0xfb, 0x02, 0xee, 0xe0, 0xfc, 0xff, 0xec, 0xf0,
  0xf2, 0xdb, 0x17, 0xed, 0xea, 0xf8, 0x0d, 0x0c, 0xe5, 0xf1, 0xec, 0x13,
  0x01, 0xf6, 0x0b, 0xff, 0xf5, 0xeb, 0xfc, 0xcf, 0xf5, 0xf7, 0x00, 0xec,
  0xfa, 0x09, 0xe7, 0xdb, 0x04, 0x16, 0x1d, 0x0d, 0x0a, 0xfa, 0xe7, 0x0f,
  0x12, 0x09, 0xe5, 0xf1, 0xfa, 0xef, 0x13, 0xf0, 0x17, 0x1d, 0xf5, 0x0a,
  0x07, 0xb9, 0x17, 0x81, 0xe4, 0xfd, 0x0c, 0xf4, 0x0e, 0x0b, 0x0a, 0xfe,
  0xec, 0xfb, 0xf9, 0x0d, 0x11, 0x13, 0x06, 0x0b, 0xfd, 0x13, 0xe6, 0xea,
  0xfb, 0x08, 0x1d, 0xe6, 0x17, 0xef, 0x0e, 0x1e, 0xe6, 0xdf, 0x07, 0xee,
  0x19, 0xe5, 0xe7, 0xe6, 0x1d, 0x01, 0x1a, 0xa7, 0x36, 0xe7, 0x25, 0x18,
  0xfb, 0xd0, 0x05, 0xa7, 0xe6, 0xe2, 0xeb, 0xc2, 0x3b, 0xee, 0xf8, 0x03,
  0xfd, 0x23, 0x0d, 0x33, 0xfb, 0x82, 0x49, 0x55, 0xec, 0x09, 0x21, 0x00,
  0xd1, 0x0d, 0xfa, 0xd1, 0x47, 0x1e, 0xd0, 0x1f, 0x03, 0xe0, 0x1a, 0xe9,
  0x20, 0x19, 0xde, 0xcc, 0xdf, 0x08, 0x25, 0x3f, 0xd3, 0xdb, 0x26, 0xfe,
  0x21, 0xb8, 0x46, 0x45, 0x1c, 0xe5, 0x53, 0x29, 0x2a, 0x23, 0xf4, 0xed,
  0xf3, 0x35, 0xd5, 0x17, 0xed, 0x3d, 0xdc, 0x0a, 0xea, 0x32, 0xfe, 0xc1,
  0xed, 0x05, 0x20, 0xfd, 0xc8, 0xd0, 0xf9, 0x35, 0x19, 0x7f, 0x04, 0x7b,
  0x11, 0x10, 0x06, 0x19, 0x18, 0xed, 0x0c, 0xfd, 0x33, 0xee, 0x30, 0x34,
  0x16, 0xde, 0x23, 0x1b, 0xe5, 0x1f, 0xe7, 0xfa, 0x28, 0x0b, 0x4b, 0x32,
  0xdb, 0x1c, 0x4d, 0x08, 0xfe, 0x44, 0x28, 0x62, 0x04, 0xf8, 0x3c, 0x05,
  0x0d, 0xb7, 0xe6, 0xcd, 0xa5, 0xb8, 0xbb, 0xfa, 0xe7, 0xfe, 0xe3, 0xd3,
  0xec, 0xca, 0xd8, 0xf6, 0xf6, 0x2a, 0x0a, 0xeb, 0xee, 0xf9, 0xa1, 0xd9,
  0xd8, 0xb8, 0x13, 0xd4, 0xe5, 0xd3, 0xa9, 0x1e, 0xd9, 0xa0, 0x1f, 0xdb,
  0xb5, 0xf4, 0xe7, 0x16, 0x18, 0xbc, 0xd2, 0xf6, 0x06, 0xe1, 0xd9, 0x0e,
  0xa3, 0xf3, 0xc9, 0xfa, 0xdf, 0x0b, 0xee, 0x06, 0xcc, 0xb8, 0xf2, 0x0a,
  0x00, 0xcb, 0xd0, 0x22, 0x30, 0xf9, 0xdd, 0xcc, 0xb6, 0x0e, 0x09, 0x18,
  0xde, 0xba, 0xf5, 0xab, 0xa8, 0xd6, 0xa8, 0xd7, 0xf3, 0x3b, 0xc4, 0xc5,
  0xde, 0xd0, 0x03, 0xe4, 0x0f, 0xfd, 0xba, 0xb2, 0xad, 0x14, 0xab, 0xc4,
  0xd4, 0xc9, 0x20, 0xe1, 0x17, 0xd3, 0xf0, 0x00, 0xea, 0xcb, 0xcf, 0xdd,
  0xcd, 0x1b, 0x21, 0xe2, 0x09, 0x2e, 0xd2, 0xde, 0xe9, 0xa3, 0xa9, 0x2d,
  0xfe, 0x81, 0xd4, 0xb1, 0xc2, 0x1a, 0xe0, 0xcd, 0xef, 0x0c, 0xdf, 0xd2,
  0xe1, 0xe8, 0xfc, 0xd9, 0xfc, 0x08, 0xe1, 0xe0, 0xed, 0xef, 0xe9, 0xe2,
  0x04, 0xea, 0xd2, 0xe0, 0xf7, 0xe5, 0x0a, 0xeb, 0xf7, 0x81, 0x11, 0x15,
  0xd1, 0x0f, 0xe3, 0x06, 0xfe, 0x05, 0xf7, 0x14, 0xeb, 0xda, 0xdb, 0x1c,
  0x0b, 0x9f, 0xf6, 0xcf, 0xfd, 0xf9, 0xfa, 0xea, 0xc6, 0xd7, 0x04, 0xf9,
  0xe9, 0x1f, 0x0f, 0x1b, 0x0f, 0x20, 0xe6, 0xde, 0x24, 0x19, 0x0b, 0xd2,
  0xd1, 0xe7, 0x14, 0xeb, 0x12, 0x16, 0x02, 0xf5, 0xfb, 0xe0, 0xe1, 0xda,
  0x18, 0x02, 0xcc, 0x0f, 0xf8, 0x32, 0xec, 0xc5, 0xf5, 0xe9, 0xe8, 0xe9,
  0xcf, 0xd8, 0xf5, 0x32, 0x16, 0xdf, 0xc5, 0x08, 0x2b, 0x18, 0x29, 0x00,
  0x1a, 0xd0, 0x0b, 0x12, 0xc6, 0x55, 0x20, 0x0a, 0xcb, 0xde, 0x2b, 0xf7,
  0xe7, 0xd5, 0x18, 0xf9, 0x23, 0xd0, 0xf5, 0xf5, 0xe8, 0xf6, 0x09, 0x55,
  0x26, 0x07, 0xf7, 0x0a, 0xe8, 0xeb, 0xde, 0xe5, 0x05, 0xf9, 0xe5, 0xf2,
  0x0d, 0x0e, 0xd2, 0xcd, 0xe0, 0xf6, 0xf2, 0x0d, 0xea, 0x0c, 0xf1, 0x11,
  0x13, 0x07, 0x05, 0x1b, 0xfc, 0xe9, 0xe8, 0xcc, 0x10, 0x0a, 0xd8, 0x03,
  0xed, 0x16, 0xd4, 0xda, 0x1b, 0xdb, 0x00, 0x27, 0xf5, 0xfd, 0xfc, 0xcc,
  0x0c, 0xe6, 0xfe, 0xd6, 0x16, 0x0d, 0xda, 0x0d, 0xff, 0x15, 0xe2, 0x10,
  0xeb, 0xd9, 0xe0, 0x13, 0x10, 0x2a, 0xd7, 0x11, 0xfa, 0xf8, 0xd4, 0xf2,
  0xfa, 0xdd, 0xf5, 0x27, 0xfd, 0x02, 0xdb, 0xe6, 0xd8, 0x09, 0xd1, 0xf5,
  0x13, 0x0b, 0xd6, 0xcc, 0x13, 0x16, 0xf5, 0xfb, 0xe6, 0x05, 0x00, 0x6d,
  0xed, 0x1e, 0xde, 0x02, 0x13, 0x12, 0x01, 0x12, 0x19, 0x00, 0x0d, 0xdc,
  0x03, 0xfd, 0xe6, 0xe2, 0xff, 0x12, 0xf6, 0xc8, 0xe2, 0xe9, 0xd7, 0xf3,
  0xfa, 0xd1, 0x14, 0x08, 0xe3, 0x2e, 0xfb, 0x7f, 0xd8, 0xf1, 0xd5, 0xd1,
  0xf4, 0x17, 0xf9, 0x07, 0xf8, 0x1a, 0xdc, 0xf2, 0xf2, 0xce, 0xf2, 0x03,
  0x03, 0xcd, 0xec, 0xce, 0xcf, 0x25, 0xdd, 0xfc, 0xef, 0xef, 0x06, 0x1d,
  0xfe, 0xaf, 0xd5, 0x28, 0x02, 0xf9, 0x0f, 0xda, 0xfe, 0xe3, 0xfe, 0xe2,
  0xd1, 0xdd, 0xd8, 0x23, 0xf5, 0x10, 0x0e, 0xc4, 0x12, 0xf9, 0xee, 0xc6,
  0xfd, 0xe7, 0xf8, 0xf3, 0xf0, 0xde, 0xd2, 0xe8, 0xcf, 0x94, 0x03, 0x3d,
  0xd4, 0x0c, 0xe1, 0x15, 0xe8, 0x07, 0x02, 0xd1, 0xe7, 0x04, 0x1f, 0xf7,
  0xef, 0x0c, 0xe4, 0x06, 0xde, 0xfd, 0x00, 0xd7, 0xc6, 0x1b, 0x04, 0xf2,
  0x07, 0x05, 0xff, 0xfd, 0xfa, 0x23, 0xd0, 0x81, 0x00, 0xf7, 0xf2, 0x11,
  0x26, 0x13, 0xd4, 0xfd, 0x1d, 0xfa, 0xd1, 0xec, 0xd3, 0x05, 0xce, 0xc5,
  0xe4, 0xdf, 0xfa, 0xc7, 0xd9, 0x19, 0xf8, 0xd0, 0xea, 0x13, 0x0b, 0xf0,
  0xd3, 0xad, 0xe6, 0xde, 0x05, 0x26, 0xf1, 0xfb, 0x26, 0xf4, 0xff, 0xe7,
  0xff, 0xc9, 0x30, 0x38, 0xe5, 0x06, 0xd4, 0x1c, 0x10, 0x37, 0x06, 0xef,
  0x1e, 0xeb, 0xcc, 0xe5, 0x10, 0xc8, 0xec, 0x11, 0xcf, 0xba, 0x0d, 0xc4,
  0x00, 0x1e, 0x2a, 0x01, 0xeb, 0xe2, 0xd9, 0xdb, 0x07, 0xef, 0x0b, 0xdc,
  0x0f, 0xc2, 0x04, 0xcf, 0x23, 0xf9, 0xd8, 0xd4, 0xcb, 0xe5, 0xce, 0x36,
  0x21, 0xe1, 0x32, 0xfe, 0xcc, 0x0c, 0xd0, 0x81, 0xd9, 0xed, 0xfb, 0x27,
  0xce, 0x00, 0xd2, 0xe3, 0xfc, 0xe6, 0xd4, 0xe9, 0x27, 0x18, 0xf2, 0x05,
  0xdb, 0x1c, 0x1d, 0x06, 0xe7, 0xc9, 0xf3, 0xd9, 0x03, 0xfd, 0xd2, 0x0b,
  0xd3, 0xc0, 0x26, 0xe8, 0x27, 0x01, 0xd0, 0xc4, 0x04, 0xe5, 0xf8, 0xf5,
  0x09, 0x29, 0xe9, 0xf4, 0xf1, 0x86, 0x2c, 0xc4, 0xe9, 0x1d, 0xc8, 0xd7,
  0x30, 0x0c, 0xe2, 0xf5, 0xd7, 0xf5, 0xf3, 0x01, 0xc5, 0xfd, 0x12, 0x00,
  0xc8, 0xfb, 0x04, 0x1b, 0xf4, 0x1c, 0xe5, 0xfd, 0xc0, 0xc5, 0xc6, 0xd1,
  0x03, 0xe1, 0xfa, 0xcf, 0xd6, 0xed, 0xf0, 0xe8, 0x1a, 0x1f, 0xd2, 0x1f,
  0xd4, 0xfe, 0x28, 0xed, 0xde, 0x7f, 0x14, 0xf1, 0x14, 0xdc, 0xfb, 0x23,
  0x1a, 0xb5, 0x18, 0xd9, 0xce, 0x04, 0xec, 0x11, 0x13, 0x56, 0xf3, 0x00,
  0xdc, 0x11, 0xbd, 0xd3, 0x10, 0x15, 0xe3, 0x11, 0x3a, 0x29, 0x03, 0xff,
  0xc1, 0x13, 0x0b, 0x06, 0x2b, 0xff, 0x01, 0x1d, 0xfc, 0x20, 0x28, 0xbe,
  0xc5, 0xf4, 0xe4, 0x19, 0x07, 0x29, 0xd2, 0xd7, 0x23, 0xca, 0xe5, 0xf5,
  0xb8, 0xec, 0xef, 0x20, 0x10, 0xe6, 0x24, 0x05, 0xfd, 0x44, 0xc9, 0x33,
  0xd6, 0x0e, 0x25, 0xee, 0xeb, 0xc7, 0xb8, 0xf7, 0xfa, 0xfc, 0x14, 0xee,
  0x20, 0xa5, 0xda, 0x0c, 0x1d, 0xc6, 0x16, 0xfd, 0xfc, 0xd0, 0x1e, 0xfc,
  0x05, 0x1c, 0x01, 0xf8, 0x07, 0x65, 0x23, 0x0b, 0xfb, 0x04, 0xb6, 0xbd,
  0x08, 0x0a, 0xe0, 0x03, 0x13, 0xdc, 0x0f, 0x0b, 0xdc, 0xeb, 0xe2, 0xe4,
  0xd6, 0x1b, 0x10, 0x0c, 0x09, 0x09, 0xf3, 0x10, 0xf0, 0x03, 0x1d, 0xfa,
  0x04, 0xc1, 0x1c, 0xf0, 0xda, 0x02, 0x07, 0xfb, 0xfe, 0xd9, 0xf5, 0xe6,
  0x11, 0x06, 0xdc, 0xe5, 0xcd, 0x2f, 0xdb, 0x07, 0xe7, 0x06, 0x11, 0x21,
  0x1c, 0x2e, 0xe2, 0xeb, 0x09, 0x18, 0xeb, 0x09, 0xfc, 0x7f, 0xfd, 0x1c,
  0xd1, 0x09, 0x0f, 0x13, 0xfa, 0x0f, 0x1d, 0xfd, 0x0b, 0x0a, 0x1e, 0x14,
  0x1b, 0xd3, 0xde, 0x10, 0xd5, 0xe6, 0xde, 0x01, 0xfa, 0xe6, 0xfc, 0xd0,
  0xff, 0xd0, 0xf9, 0x0d, 0xe7, 0x0f, 0xf2, 0x02, 0x16, 0xda, 0x16, 0xf0,
  0x08, 0x04, 0xf7, 0xfd, 0x1b, 0x1b, 0x17, 0x26, 0xfa, 0x1b, 0xe8, 0xe1,
  0xfd, 0xe9, 0x0e, 0xf6, 0x17, 0x06, 0xe0, 0xcd, 0x17, 0xeb, 0xed, 0xff,
  0xef, 0x04, 0xee, 0x09, 0xed, 0x29, 0x14, 0xcf, 0xbf, 0xfc, 0xbe, 0x96,
  0xb0, 0xfb, 0xc5, 0xde, 0xe9, 0x58, 0xe7, 0x0f, 0xae, 0xd4, 0x12, 0xfb,
  0xfa, 0xf3, 0x24, 0xe1, 0x31, 0x03, 0xd7, 0xe8, 0xfe, 0x1b, 0xd8, 0xe6,
  0xdc, 0x91, 0x86, 0xa1, 0xd0, 0xfe, 0xa8, 0xe7, 0xdd, 0xe9, 0xc4, 0x17,
  0x0d, 0x3a, 0xeb, 0xa0, 0x17, 0xc1, 0x0c, 0xed, 0xd4, 0xb3, 0xa5, 0xc7,
  0xc0, 0xf4, 0xd5, 0x2d, 0xd4, 0xec, 0x98, 0xfc, 0xa8, 0x97, 0xcd, 0xc3,
  0x23, 0xc1, 0xbd, 0xda, 0x45, 0xeb, 0x26, 0x33, 0xb3, 0x81, 0xc7, 0xc8,
  0x11, 0xbb, 0xc2, 0xeb, 0x23, 0x27, 0x99, 0xb6, 0xc5, 0xac, 0x02, 0xf4,
  0xe3, 0x9e, 0x0d, 0x38, 0x50, 0x17, 0xc3, 0xa2, 0x33, 0xbe, 0x94, 0xda,
  0xfc, 0x26, 0xf2, 0x1d, 0x19, 0xb6, 0xad, 0xac, 0xd5, 0xad, 0xa6, 0xec,
  0x25, 0xf7, 0xab, 0x90, 0xd0, 0xe2, 0xad, 0xc2, 0xd6, 0x33, 0x11, 0xc3,
  0x96, 0xfd, 0x91, 0xc5, 0x38, 0xc8, 0xca, 0x81, 0x2f, 0xaf, 0xae, 0xd8,
  0xb3, 0x88, 0x17, 0xdf, 0x09, 0x91, 0xa3, 0xf4, 0x03, 0xb0, 0x27, 0xfa,
  0x42, 0x0f, 0x2d, 0xd2, 0xa8, 0xe9, 0xc4, 0x03, 0xae, 0xce, 0x00, 0xc8,
  0x1e, 0x0b, 0x1c, 0xb1, 0xc1, 0xda, 0xd0, 0x42, 0x03, 0x0e, 0x07, 0x15,
  0xae, 0xfd, 0x10, 0xce, 0xa2, 0xb5, 0xc8, 0xa0, 0xd9, 0xab, 0x2e, 0xf8,
  0x0a, 0xa0, 0xdf, 0x9d, 0xc1, 0x11, 0x14, 0x1c, 0x3c, 0xf2, 0x29, 0xd7,
  0x27, 0xca, 0x4f, 0xb5, 0xbc, 0x14, 0xc2, 0xa8, 0x1a, 0x17, 0xa7, 0x8f,
  0xc1, 0xf4, 0xc9, 0xd9, 0x1a, 0xa9, 0xc5, 0x0e, 0x36, 0x11, 0xc6, 0x0d,
  0xb7, 0xa2, 0xbd, 0x03, 0xfc, 0x99, 0x9c, 0xb0, 0x06, 0x91, 0xf2, 0xe4,
  0xa9, 0xea, 0xa7, 0x09, 0x2a, 0x99, 0x29, 0xf7, 0xc5, 0x38, 0xf1, 0xe3,
  0x30, 0xf6, 0xf1, 0x1c, 0x2a, 0xc4, 0x12, 0xa0, 0xbd, 0x2d, 0xec, 0x00,
  0xff, 0xde, 0xc8, 0xb2, 0xb0, 0x2a, 0x1d, 0x41, 0xf6, 0x88, 0x1a, 0xb6,
  0xf3, 0xd9, 0xe0, 0xc8, 0xb5, 0xaf, 0xaa, 0xf2, 0x07, 0x2c, 0x34, 0xb0,
  0xba, 0x0e, 0xc7, 0x97, 0x2e, 0x07, 0xe2, 0xbe, 0xb3, 0xd9, 0xb8, 0x0f,
  0x3a, 0xe5, 0x1d, 0xdc, 0xf8, 0x99, 0xe2, 0xd8, 0xb2, 0x32, 0x1d, 0x06,
  0xa3, 0xdd, 0xff, 0x1d, 0xe1, 0x0b, 0xc5, 0xec, 0x4f, 0xfa, 0xb8, 0x81,
  0x36, 0x22, 0x09, 0xfb, 0x01, 0xd3, 0xd3, 0x9d, 0xd5, 0x33, 0x06, 0xea,
  0x0e, 0xee, 0xff, 0x91, 0xd6, 0xc4, 0xd6, 0x8a, 0xe9, 0x59, 0xed, 0x15,
  0xd7, 0x0e, 0xf9, 0x0e, 0xbd, 0x06, 0x39, 0xe3, 0xc6, 0xb8, 0x31, 0xbf,
  0x17, 0xf9, 0x4a, 0x9f, 0x51, 0xde, 0x1d, 0x44, 0xb4, 0xa8, 0x14, 0xad,
  0xa2, 0x2e, 0xc1, 0xdf, 0x1f, 0x12, 0x19, 0xa1, 0xac, 0xbc, 0x16, 0x4d,
  0xed, 0x0b, 0x53, 0xff, 0xfc, 0xd7, 0xb8, 0xe5, 0xe7, 0xf7, 0x0a, 0xf5,
  0xe7, 0x07, 0xe6, 0x08, 0xf8, 0xc8, 0xf5, 0xe8, 0xf1, 0x03, 0xe4, 0xf6,
  0xec, 0xf6, 0xde, 0xfd, 0xe9, 0xf3, 0xfb, 0xf2, 0xec, 0xcf, 0xe5, 0x38,
  0xe4, 0xfd, 0x00, 0x0e, 0xee, 0xf3, 0xf9, 0xeb, 0xe8, 0xff, 0x10, 0x0f,
  0xf4, 0xdc, 0x0d, 0xe4, 0xf0, 0x03, 0x0a, 0x0d, 0xdf, 0xf4, 0xfa, 0xde,
  0xf9, 0x04, 0xe9, 0x05, 0x00, 0xe6, 0x0e, 0x39, 0x03, 0x13, 0xf4, 0xe0,
  0xfa, 0x05, 0xfd, 0x16, 0x10, 0x04, 0xed, 0x11, 0xfa, 0x04, 0xf5, 0xe3,
  0xed, 0xdb, 0x05, 0xe6, 0x06, 0x1e, 0xdf, 0x05, 0x09, 0xfa, 0xe8, 0xf4,
  0xed, 0x35, 0x0e, 0x7f, 0xf3, 0xef, 0xfb, 0xe1, 0x16, 0xe1, 0x04, 0x06,
  0xf0, 0xdd, 0xe7, 0x0a, 0xfc, 0x15, 0xdf, 0xed, 0xfe, 0xec, 0xfb, 0xe0,
  0x01, 0x0b, 0xf3, 0xf8, 0xee, 0x02, 0xe7, 0x02, 0x00, 0xfc, 0x08, 0x77,
  0xdd, 0x17, 0xf5, 0x10, 0xf3, 0x00, 0x10, 0x08, 0xfd, 0xf8, 0xf1, 0xf4,
  0xf0, 0x38, 0x16, 0xee, 0x06, 0x08, 0x06, 0x06, 0x02, 0x0b, 0xe8, 0x14,
  0x13, 0xf5, 0x16, 0xeb, 0x0d, 0x13, 0xff, 0x22, 0x04, 0xe7, 0xec, 0x04,
  0x07, 0xfd, 0xfd, 0x06, 0xf2, 0xef, 0xe9, 0xfa, 0xf0, 0x8a, 0x08, 0xf2,
  0x00, 0x18, 0xff, 0x0a, 0x15, 0xfd, 0x02, 0x12, 0xfd, 0x10, 0x00, 0xf5,
  0xef, 0xe9, 0x0a, 0xfb, 0xf4, 0x00, 0xf3, 0x02, 0xf4, 0xf9, 0xf9, 0x01,
  0x12, 0xef, 0x09, 0xf4, 0x09, 0x15, 0xfb, 0xed, 0x19, 0x08, 0xee, 0x04,
  0xf1, 0x00, 0xf5, 0xfb, 0xe7, 0x13, 0x13, 0xf0, 0xf0, 0x03, 0xea, 0x81,
  0x0e, 0xf1, 0xf5, 0x03, 0xfc, 0x0a, 0xf4, 0xfa, 0x12, 0x0f, 0xf1, 0xf4,
  0x0e, 0xce, 0x16, 0xf8, 0x07, 0xfb, 0x07, 0xea, 0xf9, 0xfe, 0x0c, 0x06,
  0x01, 0x08, 0x15, 0xf9, 0xfd, 0xc5, 0xec, 0xdf, 0xed, 0xed, 0x11, 0xfa,
  0xea, 0x04, 0xf5, 0xf4, 0xe8, 0xfe, 0xed, 0x02, 0xed, 0x81, 0xf2, 0x11,
  0xff, 0xf3, 0xf0, 0x01, 0xee, 0xef, 0xe5, 0xe6, 0xfb, 0xec, 0x07, 0x16,
  0xfd, 0x11, 0xf7, 0x1e, 0x10, 0x06, 0xf6, 0xe5, 0xed, 0xef, 0xfe, 0x02,
  0x00, 0xed, 0x0a, 0xf0, 0x06, 0xf0, 0xf4, 0xee, 0xe8, 0xf2, 0xf9, 0x13,
  0xf7, 0x15, 0x02, 0x09, 0x11, 0xdd, 0xec, 0xe8, 0xf7, 0xf7, 0xdd, 0x0f,
  0xe1, 0x14, 0x05, 0xe1, 0xe9, 0xfa, 0xf5, 0x03, 0xfc, 0xf1, 0xf3, 0xf4,
  0xf8, 0xd7, 0xe1, 0xfc, 0x09, 0xec, 0xed, 0x0f, 0xe0, 0xfa, 0xf1, 0xf6,
  0xfd, 0xdd, 0xf2, 0xfb, 0x04, 0x04, 0xea, 0x10, 0xf1, 0xfe, 0xe2, 0xe1,
  0x0f, 0xfe, 0xfa, 0xfe, 0x05, 0xf2, 0x0d, 0x00, 0xfe, 0xc8, 0x08, 0x0c,
  0xe8, 0xe6, 0xe5, 0x13, 0x06, 0xf0, 0x08, 0xec, 0x03, 0xed, 0xff, 0xfa,
  0xe6, 0x43, 0xf9, 0xd9, 0x0f, 0xf4, 0xf1, 0xea, 0x09, 0xf7, 0xd3, 0xe5,
  0xdc, 0x0b, 0xf6, 0x06, 0x0c, 0xce, 0xde, 0xfb, 0xd6, 0xf9, 0xdb, 0x07,
  0xd8, 0x05, 0xeb, 0xe6, 0x03, 0x06, 0xcf, 0xfa, 0xda, 0xee, 0xfd, 0xf8,
  0xe9, 0xdd, 0xec, 0x06, 0xf4, 0xfb, 0xd1, 0x12, 0x02, 0x06, 0x0b, 0x1e,
  0xe1, 0xe0, 0x04, 0xff, 0x06, 0x05, 0x0c, 0xd3, 0xfd, 0x16, 0x03, 0x01,
  0xe5, 0x12, 0xec, 0x0e, 0x0d, 0xc2, 0xe2, 0x11, 0xfc, 0xfa, 0xd3, 0xd8,
  0x09, 0xff, 0xf7, 0xea, 0x05, 0xda, 0x06, 0x16, 0xd0, 0xd3, 0xe8, 0xdc,
  0xec, 0xef, 0xdc, 0x14, 0xd9, 0xf0, 0xe8, 0xdd, 0xef, 0x02, 0xdc, 0x08,
  0x0b, 0xc8, 0xd9, 0x40, 0xfc, 0xe8, 0xff, 0xfa, 0xea, 0x10, 0xfa, 0xfd,
  0xe6, 0xe0, 0xd7, 0xfe, 0xd1, 0x36, 0x0a, 0xff, 0x11, 0xea, 0xda, 0xf7,
  0x02, 0x04, 0x10, 0xde, 0x04, 0xe1, 0xe3, 0xef, 0xf3, 0x23, 0x12, 0x7f,
  0xf3, 0x04, 0xcf, 0x02, 0xec, 0xf8, 0x10, 0xf1, 0xff, 0xf3, 0xf7, 0x0f,
  0x01, 0xf4, 0xf3, 0xef, 0xe3, 0x0f, 0xf4, 0xf3, 0xee, 0xfd, 0x04, 0xe9,
  0xfc, 0xf5, 0xfc, 0x0e, 0xfc, 0xc0, 0x02, 0xe3, 0xf8, 0x0d, 0x1a, 0xf6,
  0xe8, 0xfb, 0x0c, 0x08, 0x14, 0xe9, 0x0f, 0x11, 0x0e, 0xe7, 0x0a, 0xe9,
  0xef, 0xe6, 0x03, 0xff, 0x06, 0x09, 0xe7, 0xf7, 0xed, 0x13, 0x10, 0x0a,
  0xfd, 0xdf, 0xff, 0x18, 0xfb, 0xf9, 0x13, 0xe6, 0x13, 0x01, 0xfb, 0xf9,
  0xff, 0xf1, 0x16, 0x09, 0xf2, 0x12, 0xfe, 0xf0, 0x12, 0xf5, 0x00, 0xf3,
  0xf3, 0xe9, 0xfa, 0x17, 0x09, 0x0b, 0x05, 0x12, 0xeb, 0x08, 0x0b, 0x0a,
  0xe8, 0xfa, 0x06, 0x0a, 0x18, 0x0d, 0xfc, 0x0f, 0xfc, 0xfb, 0xeb, 0x06,
  0x00, 0xf3, 0x10, 0x0d, 0x03, 0xf4, 0x07, 0xe3, 0x05, 0x13, 0xfe, 0xe9,
  0x17, 0x0a, 0xf6, 0xf7, 0x0e, 0xeb, 0xfd, 0x81, 0x14, 0x0d, 0xfe, 0x04,
  0xd9, 0xe7, 0x0e, 0x1b, 0x07, 0x2b, 0x18, 0xd4, 0xdc, 0x3f, 0x0f, 0xc3,
  0xd7, 0xd1, 0xf3, 0x18, 0x36, 0x00, 0xf8, 0xc2, 0xfb, 0xd1, 0xd9, 0x2e,
  0xee, 0x2b, 0xf4, 0x29, 0xd0, 0xf2, 0xd1, 0xf9, 0xf3, 0xe9, 0xcc, 0xb6,
  0xcd, 0xd0, 0x07, 0xdd, 0xe4, 0x65, 0xe8, 0x1d, 0xf3, 0xde, 0xcd, 0xb7,
  0x0e, 0x35, 0xf4, 0xd3, 0xd8, 0xf6, 0xc6, 0x21, 0x18, 0x7f, 0xf1, 0x22,
  0x0d, 0xf9, 0x0a, 0xe1, 0xef, 0xd5, 0xff, 0xbd, 0xdc, 0xc9, 0x16, 0xde,
  0xb8, 0xfa, 0x03, 0x19, 0xe2, 0xd4, 0xfa, 0x0d, 0xee, 0xfa, 0x24, 0xf4,
  0xf7, 0x24, 0xf0, 0xed, 0xef, 0x5b, 0xd9, 0xc0, 0x2d, 0x09, 0xe1, 0x1d,
  0x36, 0x1e, 0xfe, 0x26, 0xea, 0x1a, 0x0b, 0x02, 0x22, 0x67, 0x15, 0xca,
  0xea, 0x24, 0xfb, 0xf2, 0xfc, 0xf8, 0xe1, 0xfc, 0x0f, 0xc5, 0x0e, 0xdb,
  0xd3, 0x1d, 0xd8, 0x20, 0xfb, 0x0f, 0x2f, 0x14, 0xec, 0x1f, 0xdc, 0xc8,
  0x34, 0x06, 0xdf, 0xdd, 0x32, 0x79, 0x6b, 0x57, 0x5b, 0xd7, 0x77, 0x5f,
  0xfc, 0x10, 0x39, 0x3d, 0x3f, 0xeb, 0x07, 0xd3, 0xeb, 0x4a, 0xff, 0x6d,
  0xd9, 0x05, 0x0e, 0xe9, 0xba, 0x33, 0x22, 0x1a, 0x29, 0xd4, 0xe7, 0x2a,
  0x47, 0x67, 0x2f, 0xde, 0x4c, 0x45, 0x19, 0xfb, 0x10, 0x45, 0x1a, 0xf8,
  0xcf, 0xfa, 0x37, 0xee, 0xd4, 0x10, 0x63, 0x78, 0x43, 0x34, 0x51, 0x45,
  0x34, 0x14, 0xfb, 0xe9, 0x25, 0x29, 0x43, 0x13, 0x22, 0x1c, 0x1f, 0x30,
  0xd9, 0xd1, 0xba, 0x1d, 0x47, 0x18, 0xde, 0xde, 0x28, 0x21, 0xd0, 0xf7,
  0x3e, 0x97, 0x2f, 0xf0, 0xbb, 0x02, 0xd0, 0xd5, 0xbd, 0x02, 0xce, 0x46,
  0xd2, 0x1c, 0xdd, 0x54, 0x06, 0x7f, 0x21, 0x06, 0xc5, 0x1c, 0x0a, 0xff,
  0xeb, 0x16, 0x2b, 0xc9, 0xff, 0xfa, 0x21, 0x1f, 0x01, 0xb1, 0xaf, 0xc1,
  0xbc, 0x3e, 0xd0, 0x14, 0xd9, 0xfd, 0xe9, 0x29, 0xeb, 0xe8, 0xf4, 0xfa,
  0xce, 0x8b, 0xe4, 0x02, 0x0c, 0xcd, 0x10, 0x2b, 0x24, 0xf2, 0x14, 0xfe,
  0x03, 0xe3, 0x16, 0xe7, 0xe0, 0x2a, 0x00, 0x13, 0xf5, 0x24, 0xdf, 0xf5,
  0xe3, 0xe1, 0xd5, 0x19, 0xd2, 0xe2, 0xf0, 0xee, 0xd7, 0x7f, 0xe6, 0xd9,
  0x04, 0x04, 0x05, 0xf0, 0xd9, 0x1e, 0xe2, 0xe1, 0xdd, 0xe4, 0xdb, 0xef,
  0xeb, 0x50, 0x13, 0x1b, 0xfa, 0x21, 0xe5, 0xd6, 0x04, 0xd9, 0xe4, 0x16,
  0xd0, 0xc8, 0x2a, 0xf1, 0xd5, 0x1b, 0x05, 0x16, 0x06, 0xd6, 0xda, 0xfb,
  0xe9, 0xe4, 0x14, 0xce, 0xcf, 0xe7, 0x04, 0xf7, 0x2d, 0xc9, 0xd7, 0x3f,
  0xf3, 0x01, 0xf4, 0xcc, 0xdb, 0x02, 0xf1, 0xe7, 0x09, 0xe0, 0xf7, 0x18,
  0x06, 0xdb, 0xcc, 0xda, 0x0e, 0xce, 0xf6, 0x14, 0x15, 0x00, 0xea, 0x17,
  0x27, 0x00, 0xde, 0xe2, 0x10, 0x25, 0xdc, 0x04, 0xe8, 0xf7, 0x0d, 0xd9,
  0x0f, 0x20, 0x1b, 0x0b, 0xe8, 0x09, 0x0d, 0x0b, 0x27, 0x56, 0xfd, 0x05,
  0xfd, 0xf4, 0x1d, 0xfd, 0x2e, 0x06, 0xea, 0x29, 0x02, 0xf7, 0x0d, 0xe4,
  0xf7, 0xf5, 0x19, 0xb2, 0x13, 0x09, 0xf2, 0x18, 0xf0, 0xf8, 0x12, 0xe1,
  0xec, 0x04, 0xfc, 0x07, 0x24, 0x30, 0x03, 0x0a, 0x16, 0x25, 0x17, 0xff,
  0x28, 0xe7, 0x14, 0x0c, 0xdf, 0xf2, 0x06, 0x04, 0x12, 0xfc, 0x28, 0xfe,
  0x16, 0xf0, 0x0a, 0xf5, 0x07, 0xf8, 0x14, 0x06, 0x19, 0x0d, 0xf3, 0xf3,
  0x27, 0x0f, 0xf4, 0xf6, 0xfe, 0xf2, 0xfc, 0xfd, 0x20, 0xe2, 0xff, 0xf6,
  0xdb, 0x1f, 0xfe, 0x0e, 0xf9, 0xf0, 0xfb, 0xc5, 0x1e, 0xfe, 0xed, 0x20,
  0xee, 0x21, 0xed, 0xe3, 0xf4, 0xfa, 0xf4, 0x0e, 0x1f, 0x01, 0x2a, 0x0d,
  0x23, 0x1e, 0x06, 0x01, 0xfa, 0xf0, 0x0d, 0xf0, 0xfc, 0x10, 0xfa, 0x00,
  0x15, 0x81, 0xea, 0x8e, 0x02, 0xf6, 0xf5, 0xf2, 0x13, 0xf4, 0xe0, 0x0e,
  0xff, 0xe9, 0xf5, 0xff, 0xf8, 0xdd, 0x15, 0x00, 0xed, 0xf7, 0xeb, 0x1b,
  0xf2, 0xf5, 0xdb, 0xdf, 0x09, 0xf8, 0x0c, 0x1f, 0xee, 0x05, 0xe8, 0x3a,
  0x02, 0xea, 0xe0, 0xf3, 0x17, 0x0e, 0xe5, 0xfe, 0xed, 0x03, 0xee, 0x18,
  0xff, 0x07, 0x16, 0xf9, 0x00, 0xea, 0xf1, 0xf2, 0xdd, 0xf9, 0x03, 0xfc,
  0x06, 0xe5, 0x04, 0x11, 0xfc, 0xf6, 0xe8, 0x0f, 0xf9, 0xf2, 0x03, 0x12,
  0x02, 0xef, 0x14, 0x21, 0xfd, 0x03, 0xfd, 0xe1, 0x0c, 0x0b, 0x14, 0x1c,
  0x13, 0x11, 0xf0, 0x19, 0xf4, 0x0f, 0x01, 0x06, 0x13, 0x0d, 0x05, 0xf6,
  0x16, 0x81, 0x0f, 0xd2, 0xe4, 0x06, 0x0a, 0xdf, 0x13, 0xdb, 0x13, 0xf4,
  0xf1, 0xe7, 0xe9, 0xfb, 0x00, 0xe3, 0x0b, 0xe2, 0xef, 0x04, 0xf0, 0xe9,
  0x04, 0x21, 0xec, 0x0c, 0xfc, 0xff, 0xe3, 0x1d, 0x0f, 0xed, 0xf9, 0x30,
  0x03, 0x2c, 0xf6, 0xf4, 0x0b, 0xe0, 0xe2, 0x14, 0xeb, 0xee, 0xf7, 0xf4,
  0x08, 0xdb, 0xce, 0x0a, 0x13, 0xce, 0x05, 0x16, 0xdb, 0xfd, 0xf2, 0xdf,
  0x16, 0xfc, 0xfc, 0x22, 0xe5, 0xab, 0xfe, 0x32, 0x00, 0x0a, 0xce, 0xdd,
  0x06, 0xf5, 0xf5, 0x12, 0xe0, 0xe9, 0xe6, 0x2a, 0xff, 0xe5, 0xe3, 0x2c,
  0x03, 0xd0, 0x12, 0x10, 0xfb, 0xc9, 0xce, 0x13, 0xfd, 0x03, 0x1b, 0xf2,
  0x10, 0x97, 0xf2, 0x35, 0xe5, 0xf2, 0xee, 0xd2, 0xf5, 0x04, 0xe2, 0xe4,
  0xd1, 0xdf, 0x0d, 0xf1, 0x08, 0x18, 0x0f, 0xf6, 0x15, 0x12, 0xcd, 0xf6,
  0x1a, 0x14, 0x13, 0xed, 0xf2, 0x09, 0xe8, 0xdc, 0xdc, 0x3b, 0xf0, 0x7f,
  0xf7, 0xf0, 0x05, 0xcf, 0xe7, 0x08, 0xe8, 0xe5, 0xd5, 0xcd, 0x05, 0x22,
  0x16, 0xcc, 0xff, 0x02, 0x0c, 0xca, 0xf6, 0x24, 0xd3, 0xdd, 0x0d, 0xe0,
  0x18, 0xf1, 0xf0, 0x01, 0xd9, 0x41, 0x1b, 0x74, 0x0d, 0x20, 0xee, 0xf4,
  0x0a, 0xea, 0x00, 0x07, 0xf6, 0xef, 0x10, 0x1e, 0xe2, 0xb5, 0x17, 0xf3,
  0xdb, 0xe0, 0xf7, 0xfc, 0xf8, 0x09, 0xfc, 0xf9, 0x05, 0x09, 0xf5, 0xf2,
  0xf7, 0x81, 0xe4, 0x18, 0xe1, 0xeb, 0x12, 0xe3, 0x1b, 0xfa, 0xfb, 0x13,
  0x05, 0x0d, 0x06, 0xf0, 0x0c, 0x13, 0x01, 0xf7, 0xeb, 0xfa, 0x06, 0xeb,
  0x16, 0xdd, 0x02, 0x03, 0x15, 0xf1, 0xec, 0x1e, 0xea, 0x1c, 0x04, 0xfe,
  0x05, 0x00, 0xf8, 0xf0, 0xe4, 0x08, 0xdd, 0xef, 0x0e, 0x0e, 0xea, 0x14,
  0x00, 0xdd, 0xf3, 0xe4, 0xf5, 0xf6, 0xdd, 0xf9, 0x05, 0xf6, 0xfe, 0x0b,
  0xe8, 0xe9, 0xfb, 0x16, 0x0d, 0xd5, 0xe6, 0x9d, 0xff, 0x0a, 0xf1, 0xec,
  0xf7, 0xf2, 0xe9, 0x12, 0xf6, 0xe3, 0xef, 0xe9, 0xf5, 0x15, 0xe5, 0xd9,
  0x04, 0xec, 0xea, 0xe3, 0x0d, 0x0f, 0xf3, 0x06, 0x18, 0xeb, 0xdf, 0x18,
  0x10, 0xce, 0x0b, 0xf2, 0x0e, 0x0c, 0xef, 0xfe, 0xcf, 0xda, 0x37, 0x0d,
  0xdb, 0xfd, 0xba, 0x1c, 0xbc, 0xc5, 0x3d, 0xd0, 0x3d, 0x18, 0xb5, 0xea,
  0x30, 0xf0, 0xf6, 0xf7, 0x19, 0x31, 0xfe, 0x05, 0xf9, 0x81, 0xae, 0xd5,
  0x9d, 0x42, 0xa2, 0xf6, 0xc3, 0x14, 0x12, 0xbf, 0xae, 0x01, 0xf6, 0x0e,
  0x2a, 0xa3, 0xb2, 0xe1, 0x26, 0xf9, 0xbf, 0xe0, 0xad, 0x4a, 0xa0, 0xe2,
  0xf5, 0x11, 0x26, 0xee, 0x36, 0xd6, 0xae, 0xe1, 0xbd, 0xda, 0xf6, 0x3a,
  0x0f, 0x1a, 0xc1, 0xe7, 0x26, 0x1c, 0xfa, 0xd2, 0xe3, 0xb4, 0x0b, 0x8c,
  0x2d, 0x26, 0xc7, 0xe2, 0xd8, 0x53, 0xcc, 0xc9, 0x50, 0x16, 0xff, 0xeb,
  0xc2, 0x0e, 0x38, 0xe9, 0xc1, 0xfc, 0x96, 0xcd, 0xdc, 0x1d, 0xa9, 0xe9,
  0xbf, 0x06, 0x02, 0xc8, 0xac, 0xe2, 0x31, 0xaf, 0x35, 0xf5, 0xd5, 0x8e,
  0xa2, 0x45, 0x07, 0x16, 0xff, 0x12, 0x16, 0xc4, 0xcb, 0xd8, 0x19, 0xc9,
  0x3c, 0x01, 0xf7, 0x01, 0xf2, 0x05, 0x0b, 0xea, 0x13, 0x17, 0x08, 0xe5,
  0x1d, 0x35, 0x16, 0x06, 0xec, 0xf7, 0x06, 0x11, 0xfc, 0x04, 0x0d, 0x15,
  0xfb, 0x19, 0xf2, 0x08, 0x0d, 0x08, 0xea, 0xde, 0x0e, 0x01, 0xef, 0x11,
  0xe8, 0xf4, 0x14, 0x0e, 0x1b, 0x0c, 0x03, 0xf6, 0xfa, 0xfa, 0xf1, 0x06,
  0x18, 0x07, 0x1e, 0xff, 0x1c, 0xed, 0x14, 0x11, 0xf4, 0xf2, 0x20, 0xf2,
  0x11, 0xc6, 0xf9, 0x93, 0x18, 0xfd, 0x18, 0xfb, 0xea, 0xeb, 0x0a, 0xef,
  0xee, 0xee, 0x10, 0x0f, 0x06, 0x21, 0x0b, 0x0a, 0x1c, 0x07, 0xf7, 0xf2,
  0x00, 0xde, 0xff, 0x19, 0x07, 0xf9, 0x13, 0xe4, 0x0b, 0x2a, 0x1c, 0x2e,
  0xfd, 0x0b, 0x11, 0x0b, 0xf5, 0x11, 0x07, 0xfa, 0x14, 0x1c, 0xeb, 0x19,
  0x05, 0x19, 0xfd, 0x04, 0x10, 0x14, 0xf7, 0xfe, 0x19, 0xfa, 0x1a, 0xfc,
  0x0d, 0x09, 0x1f, 0x01, 0x08, 0xeb, 0x13, 0x81, 0x00, 0xfb, 0x0f, 0x09,
  0xe9, 0x0c, 0x01, 0xff, 0x03, 0x12, 0xf3, 0x0b, 0xde, 0xf5, 0xce, 0xf4,
  0xe5, 0x0c, 0xfa, 0x1f, 0x06, 0xdf, 0xe4, 0x12, 0x12, 0xea, 0xf0, 0x0b,
  0x13, 0xe9, 0x02, 0xa3, 0xed, 0x10, 0xee, 0xe2, 0xe2, 0x0f, 0xcd, 0xf4,
  0x06, 0xea, 0xf2, 0xef, 0xf1, 0x2d, 0xe7, 0xfd, 0xdf, 0x10, 0xfa, 0x17,
  0xee, 0x1b, 0xfc, 0xdd, 0xf5, 0xfc, 0x01, 0x1d, 0xda, 0x57, 0xe7, 0xa2,
  0xee, 0x16, 0x04, 0x0b, 0x19, 0x03, 0x0a, 0xe8, 0xe3, 0xe4, 0x20, 0xd1,
  0xfd, 0xe2, 0xf1, 0xf3, 0xe9, 0xd1, 0x04, 0x17, 0xfc, 0x0b, 0x03, 0x14,
  0xee, 0xf5, 0xe3, 0xf5, 0x0f, 0x81, 0x12, 0x93, 0xf2, 0x18, 0xfb, 0xfe,
  0xea, 0xe7, 0x0d, 0x02, 0xda, 0xe3, 0xfd, 0xe7, 0xdc, 0xf6, 0x04, 0x13,
  0xe2, 0x0f, 0xcd, 0x29, 0x0d, 0x0f, 0x14, 0x11, 0x00, 0xda, 0xcd, 0xff,
  0x01, 0x34, 0xe4, 0xc5, 0xe3, 0xfa, 0xfb, 0xec, 0xf9, 0xe9, 0xdb, 0xfd,
  0x18, 0x15, 0xe0, 0x19, 0xfb, 0x21, 0x08, 0xfe, 0x24, 0xea, 0x0e, 0x03,
  0xfd, 0xea, 0xfa, 0x18, 0x1e, 0x0b, 0x06, 0xf5, 0xfb, 0x4d, 0x14, 0x1c,
  0x1c, 0xf7, 0xec, 0x09, 0xe9, 0xf3, 0x0a, 0xe9, 0x1d, 0xe1, 0x11, 0xe9,
  0x17, 0xb2, 0xf5, 0x05, 0x22, 0xfe, 0xf3, 0xf5, 0xf6, 0xf3, 0x0f, 0x1e,
  0xfc, 0xf7, 0xf4, 0x18, 0xe6, 0x81, 0xf7, 0xff, 0xf9, 0xee, 0x0d, 0x1e,
  0x05, 0xef, 0x12, 0xed, 0x13, 0xf0, 0xf6, 0x19, 0x08, 0x27, 0x05, 0x18,
  0xf6, 0xfc, 0xed, 0xe2, 0x10, 0xf0, 0x27, 0xf0, 0x01, 0xef, 0xf6, 0xff,
  0x1b, 0x0d, 0xfb, 0xff, 0xe6, 0x18, 0xf9, 0x0b, 0xef, 0x08, 0xfd, 0xe4,
  0xf5, 0xea, 0xf2, 0xe8, 0xf8, 0xe1, 0x0a, 0xde, 0x0a, 0x16, 0xfe, 0xff,
  0x25, 0xed, 0xfa, 0x14, 0x11, 0x0f, 0xf1, 0x00, 0x1a, 0x0a, 0x1a, 0x45,
  0xdd, 0x0a, 0xe1, 0xeb, 0x17, 0xff, 0xda, 0x10, 0xd7, 0xe6, 0x0a, 0x21,
  0x0c, 0x0f, 0xe3, 0xff, 0x08, 0x0f, 0xf0, 0xf3, 0xf7, 0xd5, 0xd9, 0xfc,
  0x00, 0xc7, 0xe5, 0x17, 0xca, 0x4f, 0x26, 0x10, 0x20, 0xd8, 0xd5, 0xd1,
  0xf7, 0x27, 0x02, 0x41, 0x27, 0xe5, 0xf3, 0x09, 0x2b, 0xfe, 0xca, 0x18,
  0x2f, 0x0b, 0xc8, 0x05, 0x42, 0x44, 0x2d, 0xe1, 0x08, 0x06, 0xe3, 0x04,
  0x27, 0x66, 0xf4, 0x09, 0x06, 0xfb, 0x00, 0xc7, 0x2e, 0x41, 0xf6, 0xfa,
  0x20, 0x18, 0xd4, 0xdd, 0x22, 0x7f, 0xd4, 0x02, 0x10, 0xf6, 0x1f, 0x01,
  0x01, 0x22, 0x1c, 0x32, 0x34, 0xe8, 0xd4, 0x0b, 0x33, 0x3a, 0xd1, 0xea,
  0x07, 0x0d, 0x28, 0x02, 0xd2, 0x3b, 0x26, 0x0d, 0x2d, 0x30, 0x24, 0x14,
  0x10, 0x3d, 0x26, 0x32, 0x07, 0xe9, 0x0d, 0x09, 0x0c, 0x2c, 0xf2, 0x09,
  0xe7, 0xf9, 0x16, 0xf6, 0xf4, 0x58, 0x05, 0x1c, 0xd0, 0x3e, 0xe2, 0xc9,
  0x09, 0x29, 0xf1, 0xf7, 0xea, 0x0c, 0xf6, 0x14, 0x18, 0xfd, 0x0e, 0x1f,
  0x02, 0xfd, 0xf6, 0x2a, 0xee, 0x2c, 0x1a, 0x21, 0x17, 0x0c, 0x16, 0x17,
  0xe1, 0x81, 0x1a, 0x24, 0x1b, 0x0f, 0x20, 0xeb, 0xe9, 0x18, 0x1a, 0x03,
  0xe7, 0x04, 0xde, 0x1b, 0x15, 0x08, 0x07, 0xf2, 0xf6, 0xec, 0xf2, 0x03,
  0x23, 0x24, 0x00, 0xfa, 0x29, 0x0e, 0x15, 0xe4, 0xee, 0x64, 0xe0, 0x1f,
  0x06, 0xff, 0xf3, 0xe9, 0xe3, 0x15, 0xf9, 0x2c, 0xfd, 0xda, 0x10, 0xe8,
  0x22, 0xba, 0x0b, 0x27, 0x0e, 0xed, 0xff, 0xef, 0x14, 0x1e, 0x17, 0x14,
  0xe0, 0x15, 0xf8, 0xf5, 0x1b, 0x35, 0xe1, 0xb9, 0xf8, 0x22, 0xff, 0x07,
  0x1e, 0x10, 0x1c, 0xf0, 0xde, 0x16, 0x0b, 0xee, 0xe8, 0x10, 0x0c, 0x2a,
  0x14, 0xfa, 0x13, 0xf1, 0xea, 0x00, 0x0e, 0xf0, 0xff, 0xe9, 0xeb, 0xf9,
  0xe9, 0x02, 0xef, 0xe0, 0xe6, 0x0a, 0xf7, 0x24, 0xf1, 0x38, 0xcf, 0x25,
  0x27, 0xdc, 0xcd, 0x3c, 0x0c, 0x26, 0xbc, 0xfb, 0xc9, 0xf2, 0x05, 0xf4,
  0xbc, 0x66, 0xda, 0xd5, 0x0d, 0xe7, 0xd9, 0xd5, 0xcb, 0x5e, 0x47, 0x55,
  0x3f, 0x26, 0xcf, 0x19, 0x1d, 0x1f, 0xf3, 0x53, 0x08, 0x19, 0x42, 0x3c,
  0xf3, 0x49, 0xc8, 0xe9, 0x3f, 0xef, 0xc2, 0x2e, 0xfb, 0x12, 0xcf, 0x08,
  0xdf, 0xf0, 0xaf, 0xe6, 0xe6, 0xe1, 0xcd, 0x4d, 0x42, 0x09, 0xd0, 0xd7,
  0x11, 0x5b, 0x49, 0x29, 0x00, 0x2d, 0x09, 0x32, 0xf4, 0x7f, 0xc9, 0x10,
  0xf0, 0xcf, 0x37, 0x33, 0xf3, 0xc9, 0xb6, 0xf5, 0xd9, 0x20, 0xe5, 0xbc,
  0xc0, 0xca, 0xe6, 0xed, 0x19, 0xf6, 0x0c, 0x39, 0x44, 0xea, 0x44, 0x59,
  0x30, 0xdb, 0xd3, 0xde, 0xef, 0x43, 0xc1, 0x33, 0x2a, 0x48, 0xeb, 0x13,
  0x03, 0x1d, 0x57, 0xeb, 0xc5, 0x27, 0xe9, 0x43, 0x3f, 0x31, 0x2f, 0x0a,
  0xd2, 0x22, 0x21, 0xfb, 0x14, 0x0b, 0xf6, 0x0c, 0x0f, 0xf9, 0xed, 0xf2,
  0x25, 0x38, 0x0d, 0x08, 0x14, 0xf4, 0x13, 0x06, 0x10, 0xf9, 0x15, 0x10,
  0x10, 0xf6, 0x0e, 0x0b, 0x0b, 0x49, 0xfc, 0x27, 0xfe, 0xfa, 0x20, 0xff,
  0xf5, 0x19, 0xf7, 0x0f, 0xf9, 0xf1, 0xe8, 0xe9, 0x0f, 0x85, 0x14, 0x11,
  0xfd, 0x04, 0xf2, 0xf4, 0xfd, 0x18, 0xed, 0xfc, 0xef, 0xfc, 0xfa, 0xea,
  0xf0, 0xe9, 0xfe, 0xf6, 0x10, 0xe6, 0x00, 0x26, 0xe7, 0xf7, 0x0a, 0xfb,
  0x18, 0xfb, 0x17, 0xeb, 0x15, 0xb8, 0x23, 0xf6, 0x09, 0x10, 0xf4, 0x00,
  0x06, 0x03, 0x01, 0xfe, 0xe5, 0x21, 0x19, 0xec, 0xf7, 0x92, 0xe5, 0x8d,
  0xf1, 0xdf, 0x1c, 0x0b, 0x03, 0xf3, 0x07, 0x01, 0xe7, 0x17, 0x06, 0xf8,
  0xfa, 0xd5, 0xf3, 0xe5, 0x01, 0xf7, 0x12, 0xee, 0x1a, 0x04, 0x11, 0x20,
  0x10, 0x00, 0x0c, 0x15, 0xfd, 0x81, 0x14, 0xf6, 0x00, 0xe8, 0x19, 0x00,
  0xe0, 0x0e, 0x07, 0x55, 0xe1, 0x13, 0x0a, 0x0f, 0x1a, 0xfe, 0xda, 0xd9,
  0xd3, 0x0f, 0xda, 0xee, 0x25, 0xe8, 0xe6, 0xfa, 0x0c, 0xed, 0xfd, 0xe8,
  0xf4, 0x7f, 0xdf, 0x23, 0x24, 0x1b, 0xe2, 0x01, 0xd6, 0x34, 0xdd, 0xfb,
  0x14, 0xf2, 0xe6, 0xeb, 0x2d, 0x39, 0xe8, 0xcd, 0xda, 0xe9, 0xd4, 0xcc,
  0xe2, 0x28, 0x15, 0x0a, 0xd8, 0xe0, 0x18, 0xdd, 0xf3, 0x73, 0x07, 0x17,
  0xe9, 0xd0, 0x22, 0xfa, 0x27, 0xef, 0x22, 0xe5, 0xfc, 0xcf, 0xcd, 0x2e,
  0xf1, 0x0f, 0x09, 0xd4, 0x21, 0x13, 0xf1, 0xdb, 0xdf, 0x01, 0x21, 0xf4,
  0x04, 0x0f, 0xf3, 0x21, 0xea, 0xf1, 0x1b, 0xf6, 0x1d, 0xfb, 0xf0, 0xd3,
  0xef, 0x4a, 0x25, 0x1f, 0xf0, 0x06, 0xdb, 0x2e, 0xf2, 0xca, 0xe3, 0xe0,
  0xcf, 0x1d, 0x03, 0xe4, 0x2d, 0xdf, 0xf9, 0x2e, 0x13, 0xf4, 0x03, 0xd1,
  0xf8, 0x50, 0xf2, 0xfd, 0xdc, 0x2d, 0xd9, 0x23, 0xd3, 0x0c, 0x38, 0x2f,
  0x30, 0x2d, 0xe3, 0xe1, 0xd1, 0xd0, 0x53, 0xc2, 0xdb, 0x04, 0x2d, 0x04,
  0x4e, 0xb6, 0xf6, 0xe6, 0x20, 0x54, 0x25, 0xcc, 0x43, 0xfd, 0x1f, 0xf4,
  0x26, 0xb6, 0xda, 0x32, 0x4a, 0xf1, 0x3e, 0x18, 0x40, 0xc6, 0xc1, 0x0a,
  0x12, 0xaa, 0x18, 0x9d, 0x3d, 0xf0, 0x37, 0x1b, 0xe2, 0x23, 0xd4, 0x20,
  0xfe, 0xde, 0xec, 0x08, 0x3a, 0x1c, 0xd4, 0xf1, 0xfd, 0xed, 0xfb, 0x2c,
  0xf2, 0xf3, 0x4c, 0x1c, 0x2b, 0x30, 0x39, 0x40, 0xee, 0xeb, 0xc5, 0xa4,
  0x15, 0xea, 0x1c, 0x22, 0x49, 0x0c, 0x3b, 0xf9, 0xaa, 0xc9, 0x03, 0x13,
  0x0a, 0x8d, 0x03, 0xd6, 0xe5, 0xce, 0x56, 0x02, 0x44, 0x14, 0x2c, 0x01,
  0xcf, 0x4f, 0xcb, 0xdc, 0x3c, 0xc3, 0x25, 0xa6, 0xe4, 0x53, 0xb1, 0xb6,
  0xd9, 0xfb, 0x4e, 0x1f, 0xf4, 0xd0, 0x23, 0x11, 0x07, 0x07, 0xd8, 0x81,
  0x0e, 0x16, 0xec, 0x2d, 0xda, 0x19, 0x40, 0x02, 0xe7, 0x14, 0x2c, 0xfd,
  0xa8, 0x05, 0x19, 0x40, 0xf3, 0xcd, 0xd4, 0x3e, 0xc6, 0x0f, 0x14, 0xb9,
  0x15, 0xfb, 0x10, 0xed, 0x1c, 0x2f, 0xe7, 0x32, 0xdb, 0xdc, 0xed, 0x03,
  0xf5, 0xde, 0x01, 0x49, 0x11, 0xea, 0xef, 0xef, 0xe9, 0x43, 0x1d, 0xf6,
  0xcd, 0xfd, 0x2a, 0xe0, 0xeb, 0x06, 0xf1, 0xb1, 0xc8, 0x07, 0xbe, 0x12,
  0xfc, 0xb5, 0x23, 0x3c, 0xf7, 0x0c, 0xe1, 0x27, 0xe9, 0x23, 0xf8, 0x29,
  0xfb, 0xec, 0xf3, 0x22, 0x09, 0x7b, 0xb0, 0x07, 0xd5, 0xc8, 0x06, 0xe2,
  0xda, 0xda, 0x10, 0xb5, 0x1e, 0x32, 0xf1, 0x30, 0x30, 0x3d, 0xcf, 0x81,
  0xc6, 0xde, 0xf2, 0xcd, 0x31, 0x03, 0x26, 0x10, 0xe1, 0xcd, 0x36, 0xcf,
  0xc2, 0x3a, 0xd8, 0xeb, 0xc6, 0xdd, 0xe1, 0x14, 0xbc, 0xd8, 0x25, 0x18,
  0x27, 0x01, 0xf8, 0x18, 0xda, 0xdd, 0xe6, 0x41, 0x2a, 0x40, 0xd0, 0xbe,
  0xf6, 0x17, 0x29, 0xf0, 0xf8, 0x1b, 0x1d, 0xe1, 0x0d, 0x45, 0xf7, 0xe0,
  0x3a, 0x35, 0xf4, 0x1b, 0x03, 0x16, 0x21, 0x1e, 0xf0, 0x17, 0x07, 0xe5,
  0x1e, 0x17, 0x23, 0xf7, 0xfb, 0x0a, 0x25, 0x2c, 0xdd, 0xf6, 0xec, 0xf7,
  0xfa, 0xf1, 0x14, 0x00, 0x17, 0xa0, 0xff, 0x06, 0x36, 0x12, 0x27, 0xe3,
  0x0b, 0x1f, 0x1a, 0x00, 0x09, 0xfb, 0xff, 0xfd, 0xff, 0xbe, 0xf0, 0x9e,
  0xf4, 0xe8, 0x39, 0x12, 0x06, 0x07, 0x17, 0xfa, 0x16, 0x01, 0xe1, 0x1b,
  0x29, 0x9e, 0x10, 0xe3, 0x1d, 0xf2, 0x08, 0x17, 0x21, 0x1e, 0x25, 0x18,
  0xd3, 0x34, 0x0e, 0xe7, 0xf0, 0x0f, 0x0b, 0x7f, 0x22, 0xfd, 0x2d, 0x31,
  0x13, 0x20, 0xec, 0xcd, 0x0a, 0x0e, 0xea, 0xe4, 0xf1, 0xdb, 0x27, 0xcf,
  0x04, 0x2a, 0x21, 0xed, 0x1b, 0xe5, 0xf9, 0xfa, 0xf7, 0xfd, 0xf7, 0xe0,
  0xe7, 0x0b, 0x2f, 0x4a, 0xf3, 0x03, 0xe6, 0xef, 0xc7, 0xe3, 0xa5, 0x14,
  0x05, 0xf8, 0x16, 0xc8, 0xae, 0xc5, 0xc0, 0xea, 0xbe, 0x52, 0x68, 0xe3,
  0x60, 0x47, 0x29, 0xc6, 0x04, 0xa6, 0x44, 0x27, 0xfd, 0xed, 0x25, 0xe9,
  0x23, 0x21, 0xcc, 0xbe, 0x01, 0xab, 0xcf, 0x84, 0x0a, 0x4a, 0x2d, 0x1e,
  0x47, 0xe2, 0xfe, 0x0d, 0x10, 0xfd, 0x06, 0xe4, 0xc4, 0x0c, 0x46, 0x22,
  0x29, 0x3e, 0x83, 0x4b, 0x20, 0x27, 0xed, 0x81, 0x4b, 0x51, 0x58, 0x44,
  0x32, 0xc3, 0xda, 0xe7, 0x1e, 0xbd, 0xf0, 0xf6, 0x5c, 0xd9, 0x9f, 0xc5,
  0xc9, 0xda, 0xfd, 0x10, 0xb8, 0x14, 0x1e, 0x36, 0xd4, 0xa7, 0xe2, 0xef,
  0xd0, 0xf5, 0xeb, 0xec, 0xff, 0xf0, 0xb1, 0x0a, 0x3c, 0x1e, 0x31, 0xb9,
  0xca, 0xdd, 0x4e, 0xc7, 0xd5, 0xcb, 0x4b, 0x29, 0xcf, 0x3c, 0xe6, 0x22,
  0xd5, 0x09, 0x00, 0x4f, 0x07, 0xca, 0xc4, 0x06, 0x3d, 0xf2, 0xfd, 0xf4,
  0x2e, 0x91, 0x5a, 0x02, 0xc2, 0x1e, 0xe8, 0xda, 0xdb, 0x3c, 0x3d, 0x18,
  0x04, 0x91, 0xce, 0x02, 0xbc, 0x9d, 0x18, 0xf4, 0x25, 0xe8, 0xdf, 0x17,
  0xda, 0x2e, 0xd3, 0xca, 0xa0, 0x81, 0xe3, 0x96, 0x2c, 0x2d, 0x94, 0x21,
  0xcd, 0xdd, 0x35, 0x1f, 0xcb, 0xbe, 0x22, 0x11, 0x13, 0xe1, 0xb0, 0xaf,
  0x0d, 0xed, 0xc7, 0x9c, 0x36, 0xee, 0x04, 0xe0, 0x1e, 0xda, 0x16, 0x1b,
  0xfe, 0x95, 0x3f, 0xf4, 0xe4, 0x49, 0xaf, 0xe3, 0x3f, 0x2e, 0xde, 0xc5,
  0x16, 0x13, 0x2c, 0xcc, 0xb8, 0xb2, 0x96, 0xf6, 0xb9, 0xdc, 0x8e, 0xc5,
  0xc1, 0xed, 0xd7, 0x3b, 0xca, 0x92, 0x99, 0xdf, 0xe6, 0x1a, 0xec, 0x2b,
  0xf5, 0x2e, 0x36, 0xa9, 0xe1, 0xde, 0xdb, 0x03, 0x26, 0xf6, 0xdb, 0xf1,
  0xff, 0xf0, 0xb6, 0xb7, 0xe1, 0x29, 0x39, 0x95, 0x32, 0x52, 0xa4, 0x9e,
  0x48, 0xfc, 0xd9, 0xe2, 0x17, 0xcc, 0xad, 0x96, 0xc5, 0x46, 0xeb, 0x23,
  0x46, 0xdc, 0xff, 0xff, 0x04, 0x00, 0x00, 0x00, 0x00, 0x10, 0x00, 0x00,
  0x61, 0x12, 0xae, 0x14, 0x91, 0xa6, 0x93, 0xf9, 0xbc, 0xa6, 0x04, 0xd7,
  0x97, 0xc2, 0x16, 0x9b, 0x9b, 0x05, 0x4e, 0xc0, 0xaa, 0x00, 0xda, 0x4f,
  0x42, 0x91, 0xc8, 0x01, 0x49, 0x91, 0x03, 0x3e, 0xda, 0xca, 0xeb, 0x93,
  0xe2, 0xcc, 0xaa, 0x8e, 0xb2, 0x9f, 0x21, 0xb9, 0xf6, 0xb5, 0x2b, 0x3c,
  0xb8, 0x0c, 0xb6, 0xa1, 0xf0, 0x0b, 0xfa, 0x19, 0xdf, 0xc7, 0x62, 0xb0,
  0x38, 0xad, 0xa3, 0xbf, 0x6b, 0x1a, 0x47, 0xdb, 0xad, 0xd1, 0x6d, 0x49,
  0x6c, 0x01, 0xa4, 0x97, 0xc6, 0xc2, 0xea, 0xf4, 0xb7, 0x9c, 0xb8, 0x81,
  0x97, 0x91, 0x21, 0x52, 0xc7, 0xd4, 0xd7, 0x93, 0xbb, 0xed, 0xbc, 0x4d,
  0xa4, 0x34, 0x35, 0x07, 0xfc, 0x02, 0x10, 0x5e, 0xdf, 0xb7, 0x30, 0xb8,
  0xb3, 0xe2, 0x06, 0x9b, 0xb5, 0xbf, 0x1b, 0x4c, 0x28, 0x0b, 0x81, 0x00,
  0xcb, 0xc0, 0x01, 0xb4, 0xc5, 0x53, 0xe9, 0x58, 0xb4, 0x89, 0xab, 0xa3,
  0xb2, 0xcf, 0xa8, 0xdb, 0xd8, 0xd8, 0x14, 0x85, 0x81, 0xbf, 0x07, 0x2f,
  0x1c, 0x31, 0xb2, 0x0d, 0xaf, 0xb8, 0xd6, 0xf8, 0x1a, 0x31, 0xf9, 0x0d,
  0xaa, 0xf1, 0x24, 0xd1, 0x0b, 0xbe, 0xf1, 0x3d, 0xde, 0xa5, 0xd8, 0xd7,
  0xfc, 0x85, 0x9f, 0xcc, 0xd1, 0xfb, 0x38, 0x1c, 0x2b, 0xf9, 0xa3, 0xef,
  0x06, 0x20, 0x06, 0x8a, 0x25, 0x23, 0x3b, 0xa7, 0x16, 0xda, 0x11, 0x1d,
  0x1f, 0xea, 0xc3, 0xf6, 0xaa, 0x1c, 0xa2, 0x83, 0xc5, 0xad, 0xad, 0x8e,
  0x09, 0xfa, 0x41, 0x1d, 0x0c, 0xc0, 0x04, 0xaf, 0xbb, 0x9f, 0xd8, 0xfd,
  0xde, 0x22, 0x90, 0xcc, 0x14, 0x1f, 0xde, 0xdb, 0x23, 0xe9, 0x05, 0xf9,
  0x16, 0x23, 0xab, 0xdb, 0xe3, 0xd1, 0x23, 0xa7, 0xe6, 0x97, 0xc4, 0xe8,
  0x58, 0xd8, 0xc2, 0x02, 0xce, 0x98, 0xb7, 0xbe, 0x40, 0x29, 0xdc, 0x2e,
  0x9c, 0x34, 0xf7, 0xb6, 0xe2, 0x2d, 0xa1, 0xc1, 0xf4, 0xa4, 0xcf, 0xfc,
  0x9f, 0xbd, 0x1d, 0xe2, 0x0e, 0x29, 0xc2, 0xd6, 0x2a, 0xff, 0x0e, 0x23,
  0x34, 0x15, 0x2a, 0x2a, 0xc9, 0x21, 0x9d, 0x20, 0xb7, 0xdd, 0xb0, 0x8d,
  0xee, 0xda, 0x8a, 0xde, 0xe4, 0xd0, 0xa8, 0xb6, 0x94, 0x30, 0x2f, 0xf4,
  0x8a, 0x11, 0x07, 0xd3, 0xcb, 0xe3, 0xfc, 0xe6, 0x89, 0xd5, 0xa0, 0xd5,
  0xc9, 0xef, 0xe8, 0xb2, 0x18, 0x8c, 0xc8, 0x01, 0xd3, 0xe9, 0xf0, 0x17,
  0x31, 0x20, 0xe9, 0x87, 0xa3, 0x1b, 0xfd, 0x03, 0x29, 0xa2, 0x9f, 0x1e,
  0x24, 0xed, 0xff, 0xb2, 0x0b, 0x81, 0xa2, 0xfb, 0xba, 0x8e, 0x81, 0xf7,
  0x02, 0x14, 0xbe, 0xf9, 0x1e, 0x2f, 0x25, 0xbc, 0xa4, 0xd3, 0x34, 0x09,
  0x17, 0xc7, 0x27, 0xa7, 0xd5, 0x9a, 0x9d, 0x2e, 0x16, 0xb5, 0xd0, 0x30,
  0x05, 0xb7, 0x8d, 0x19, 0x2f, 0x85, 0xc6, 0x15, 0x1f, 0xdb, 0x21, 0xf9,
  0xae, 0xcd, 0xd5, 0x13, 0xf9, 0x8e, 0x14, 0x9f, 0x8b, 0xff, 0xc1, 0xa3,
  0xa1, 0xa8, 0x95, 0x10, 0xa7, 0xc2, 0x22, 0xae, 0x47, 0xef, 0x4f, 0xe2,
  0xcf, 0x47, 0xe5, 0x17, 0x1c, 0x24, 0xc9, 0xd9, 0xd4, 0x28, 0x46, 0x1d,
  0x43, 0x35, 0xf8, 0xf4, 0x90, 0xc4, 0x14, 0x32, 0xd0, 0x96, 0x05, 0x81,
  0xe4, 0x05, 0x59, 0xaa, 0xa6, 0x40, 0x17, 0xf2, 0x33, 0x93, 0xad, 0xee,
  0xe2, 0x1b, 0x40, 0x3d, 0xb7, 0xe8, 0x39, 0xae, 0x93, 0x02, 0x30, 0xa1,
  0x4a, 0xbe, 0xa8, 0xb2, 0xfe, 0x10, 0x0a, 0xae, 0xd1, 0xf5, 0xbd, 0xb9,
  0x1f, 0xdc, 0xe6, 0x0a, 0x25, 0xb9, 0xd8, 0x4d, 0xd1, 0x43, 0x96, 0xac,
  0x33, 0xf8, 0xd1, 0x0c, 0xc2, 0xfd, 0xae, 0x0a, 0x38, 0x19, 0xa4, 0x05,
  0xe6, 0x9d, 0x9f, 0x8f, 0x9a, 0x1a, 0xb5, 0xe8, 0x2a, 0x92, 0x11, 0xa3,
  0x24, 0x23, 0xc6, 0x8e, 0x32, 0xb5, 0x2c, 0x99, 0x9f, 0x43, 0x2f, 0x88,
  0xba, 0x8e, 0xd7, 0xc1, 0xc4, 0x8f, 0x9e, 0x20, 0x9e, 0xa9, 0x8c, 0x19,
  0xd5, 0xec, 0x25, 0x99, 0xed, 0xb3, 0xf6, 0xba, 0xef, 0x03, 0x04, 0xe5,
  0x35, 0xe0, 0xaa, 0xf4, 0x13, 0x12, 0xbf, 0x94, 0x22, 0xc8, 0x16, 0xb1,
  0x14, 0xa7, 0xd2, 0x29, 0x91, 0xeb, 0xe5, 0x92, 0x37, 0xe8, 0x19, 0x8e,
  0x01, 0xe5, 0x13, 0xf5, 0xcd, 0xb0, 0x2d, 0xc8, 0xc7, 0x3b, 0x1d, 0x2c,
  0x98, 0xb6, 0x90, 0x30, 0xea, 0xd1, 0xe9, 0xd3, 0x14, 0xd1, 0x8e, 0xd8,
  0xfa, 0xd5, 0xe9, 0xec, 0xa9, 0x22, 0xea, 0xbb, 0x96, 0x39, 0x3a, 0x04,
  0xef, 0x3e, 0x90, 0x0e, 0x20, 0x1c, 0xdd, 0x25, 0xfb, 0x97, 0xb0, 0xe9,
  0x81, 0xb2, 0x32, 0x1b, 0x82, 0x2e, 0xf9, 0xcd, 0x8a, 0xd5, 0xe3, 0xa0,
  0xd7, 0x08, 0xa1, 0x1b, 0x81, 0xa7, 0xeb, 0xd1, 0xaf, 0xb1, 0x32, 0xdf,
  0x82, 0x32, 0xb9, 0xb7, 0x0a, 0x2e, 0x01, 0x0c, 0x25, 0xcc, 0xcc, 0xd5,
  0xc5, 0xa5, 0xf1, 0x34, 0x28, 0x97, 0xc6, 0x2b, 0xf0, 0xc1, 0xe6, 0xf2,
  0xa4, 0x02, 0xe0, 0xc8, 0x20, 0x92, 0xff, 0xb4, 0xe5, 0xb7, 0xf0, 0x01,
  0x1f, 0xa7, 0x00, 0xb7, 0xa7, 0x00, 0x13, 0xed, 0x2e, 0xd2, 0xf2, 0xe1,
  0x0a, 0x89, 0xfc, 0x81, 0x05, 0xa5, 0xdf, 0x1a, 0x82, 0xf2, 0x91, 0xaa,
  0xc5, 0x2b, 0x91, 0xd0, 0x90, 0x09, 0xac, 0x31, 0xc6, 0xd7, 0x98, 0xbb,
  0xc9, 0x3c, 0x23, 0xfb, 0xe9, 0x93, 0x27, 0x86, 0x37, 0xa6, 0xbf, 0xb4,
  0xe2, 0x31, 0x23, 0xf9, 0xc1, 0xa4, 0xc0, 0x35, 0xc2, 0x31, 0xbe, 0x8b,
  0xf0, 0x09, 0x0f, 0xe8, 0x41, 0x43, 0xeb, 0xa1, 0xbc, 0x3a, 0xe9, 0x0c,
  0xc3, 0xb1, 0xf2, 0xc6, 0xd2, 0x08, 0x8d, 0x2b, 0xab, 0x1e, 0xea, 0x03,
  0x32, 0x0b, 0x36, 0xc1, 0x31, 0xe8, 0xcd, 0xc2, 0xf2, 0xe3, 0x29, 0xf1,
  0x2d, 0x2e, 0xdb, 0xb4, 0x0a, 0x28, 0x99, 0xa9, 0x2b, 0x96, 0x98, 0xa6,
  0xf8, 0x2a, 0xa9, 0xf8, 0x97, 0xe1, 0xe5, 0xae, 0xff, 0x35, 0x9c, 0x9b,
  0x3e, 0x01, 0x0b, 0x3a, 0xc6, 0xf0, 0x05, 0xdd, 0xe8, 0xf5, 0xb5, 0x81,
  0xe9, 0x12, 0x10, 0x1f, 0xb1, 0x1b, 0xa1, 0x8d, 0xa9, 0xc6, 0x2b, 0x88,
  0xbe, 0x3b, 0x1b, 0x38, 0xab, 0xa3, 0x00, 0xd1, 0x11, 0x88, 0x38, 0xfa,
  0x87, 0x8b, 0x9a, 0xba, 0x04, 0x25, 0xfe, 0x88, 0xc2, 0x3b, 0xcf, 0xd7,
  0xfc, 0x9e, 0xd4, 0x2b, 0x9a, 0x3c, 0x3a, 0xde, 0x3a, 0x34, 0xd6, 0x3e,
  0xaa, 0x97, 0x86, 0x25, 0x16, 0xb0, 0x07, 0x00, 0xd9, 0x9e, 0xa1, 0x33,
  0x02, 0xa0, 0xa3, 0x8e, 0x88, 0xd2, 0xd4, 0xce, 0x34, 0x2a, 0x1e, 0xa5,
  0x25, 0x06, 0xdf, 0x0b, 0x34, 0x10, 0x20, 0x21, 0x86, 0xcc, 0x9a, 0xc5,
  0x32, 0x1d, 0xb5, 0x83, 0xdc, 0xb2, 0xe7, 0xc9, 0xce, 0xed, 0xd0, 0x31,
  0xc7, 0x0b, 0xa5, 0x89, 0x37, 0x10, 0x27, 0x36, 0x3c, 0x97, 0x0a, 0x9f,
  0xba, 0xcd, 0xa4, 0x2d, 0xae, 0x87, 0xe0, 0x83, 0xa7, 0xda, 0xba, 0xfb,
  0x1e, 0xc9, 0x18, 0xb7, 0x95, 0xeb, 0xa4, 0x35, 0x0c, 0xaf, 0x97, 0xff,
  0xa3, 0x9d, 0xf5, 0x8f, 0x81, 0x13, 0x42, 0x31, 0x38, 0x37, 0xb7, 0x1d,
  0xb5, 0xe7, 0xb3, 0xe5, 0xa7, 0x1c, 0xff, 0x84, 0x15, 0xef, 0xd3, 0xcd,
  0x35, 0x81, 0x9c, 0xb8, 0xbe, 0x13, 0xe5, 0x92, 0x0f, 0xa6, 0x93, 0x0f,
  0x34, 0x03, 0xd5, 0xfd, 0xb2, 0xac, 0x0f, 0xdd, 0x3d, 0x38, 0xe8, 0xe8,
  0xd4, 0x1d, 0x38, 0xfc, 0xdf, 0xca, 0xef, 0x10, 0xe5, 0x03, 0xa9, 0x32,
  0xa9, 0xe4, 0x31, 0x34, 0x29, 0x04, 0xe3, 0xa1, 0x0e, 0xda, 0xb9, 0xb8,
  0xdf, 0x42, 0x0f, 0x50, 0xb7, 0xb5, 0xcc, 0x32, 0xe7, 0xe3, 0x06, 0x38,
  0x94, 0xad, 0xc3, 0xfc, 0x01, 0xa8, 0x3a, 0x33, 0x0f, 0xfe, 0xab, 0x26,
  0xaf, 0xe3, 0xfe, 0x8a, 0x30, 0x9c, 0xe4, 0x90, 0x95, 0xc9, 0x2f, 0x9a,
  0xa8, 0xb6, 0xbf, 0xa4, 0xd7, 0xda, 0x30, 0x36, 0x20, 0x28, 0xad, 0x8c,
  0x40, 0xd3, 0xe3, 0x32, 0xc2, 0x0d, 0xfc, 0xed, 0x97, 0x09, 0xa0, 0xfa,
  0xd5, 0xd9, 0x3b, 0xa7, 0x07, 0xd4, 0xcd, 0xa1, 0x03, 0xa9, 0x8c, 0xf9,
  0xf5, 0x0d, 0xe8, 0xa5, 0x93, 0x40, 0xee, 0x81, 0x12, 0xe8, 0xa9, 0xdf,
  0xdc, 0xf7, 0x25, 0xe8, 0xbd, 0xec, 0x09, 0x14, 0xa0, 0x2e, 0xa0, 0x08,
  0x9b, 0x47, 0xb1, 0xe6, 0x1e, 0xde, 0x24, 0x94, 0x94, 0x47, 0xbd, 0xa0,
  0x21, 0xf3, 0x1a, 0x42, 0xe6, 0x04, 0x20, 0x41, 0x46, 0xa9, 0xc3, 0x20,
  0x1e, 0x92, 0x07, 0xd6, 0x9e, 0x9c, 0x1d, 0xf2, 0xe2, 0xd9, 0x21, 0x3d,
  0xa8, 0x1d, 0x3a, 0x11, 0x0d, 0x98, 0xe2, 0x0f, 0xfb, 0x88, 0x08, 0x39,
  0xd5, 0x15, 0xd9, 0x46, 0xe6, 0x02, 0xc1, 0x0f, 0xe7, 0x13, 0x31, 0x1d,
  0x15, 0xf0, 0xe3, 0x0e, 0xee, 0x06, 0x1a, 0x07, 0x11, 0xeb, 0xcc, 0x0b,
  0x00, 0x04, 0x44, 0x05, 0xde, 0xe8, 0xd3, 0xc8, 0xb5, 0x02, 0x20, 0x22,
  0xe1, 0xff, 0xfe, 0x0b, 0x15, 0xec, 0x3d, 0xdf, 0xed, 0xf2, 0x19, 0x01,
  0x08, 0xe5, 0xf8, 0xd1, 0x1a, 0xfd, 0x09, 0xd3, 0xfb, 0x2a, 0xc5, 0x14,
  0x22, 0xdb, 0x0b, 0xe4, 0xeb, 0xe1, 0x1e, 0xac, 0x08, 0x94, 0x2d, 0x17,
  0xda, 0xea, 0x33, 0x24, 0x32, 0x1d, 0x3a, 0xdb, 0x42, 0xf5, 0xea, 0xf7,
  0x07, 0xf6, 0x11, 0x2d, 0xf9, 0xd7, 0x18, 0x27, 0x81, 0xea, 0x25, 0xad,
  0xf9, 0xfd, 0xf2, 0xee, 0xf9, 0xec, 0xef, 0x22, 0xc6, 0x2b, 0xc2, 0xe3,
  0x46, 0x1b, 0x17, 0xfe, 0xf7, 0xe5, 0xe1, 0x2b, 0xe9, 0xc8, 0x3c, 0xcb,
  0xf9, 0x1f, 0x27, 0x34, 0x00, 0x02, 0x0d, 0xb6, 0x13, 0x20, 0xbf, 0x9d,
  0xea, 0xfe, 0x8f, 0x93, 0xb9, 0x2f, 0x24, 0x2d, 0xa4, 0x94, 0x8e, 0x31,
  0x8b, 0x19, 0xf4, 0xc7, 0xbf, 0xf7, 0x29, 0x35, 0xfc, 0x2b, 0x37, 0xb8,
  0xc0, 0xae, 0xa6, 0xb8, 0x9f, 0x21, 0x25, 0x2e, 0xa0, 0xf9, 0xe0, 0xdc,
  0x9c, 0xc2, 0xdc, 0xc0, 0xc2, 0x1f, 0x9d, 0xb9, 0x86, 0xf8, 0x0a, 0x93,
  0xb5, 0xc4, 0xad, 0x31, 0xbf, 0xed, 0x21, 0xb2, 0xf7, 0x05, 0x9b, 0x18,
  0x35, 0xdc, 0xc7, 0xa9, 0x02, 0xd5, 0xae, 0xe0, 0xc9, 0xd0, 0xb6, 0x30,
  0x09, 0xd5, 0x81, 0xa1, 0x90, 0x92, 0x0f, 0xf0, 0xc7, 0x2f, 0x29, 0xac,
  0xbd, 0xf1, 0xa0, 0x8d, 0xb8, 0xb3, 0x11, 0x17, 0x30, 0x27, 0x93, 0xd6,
  0x2a, 0x9a, 0x00, 0xc8, 0xa0, 0xd5, 0x17, 0xc6, 0x27, 0x31, 0xa0, 0xbe,
  0x09, 0xa1, 0xef, 0x25, 0x25, 0xa4, 0x33, 0x2b, 0xc6, 0xd7, 0xb4, 0xa4,
  0xde, 0x9c, 0x1c, 0xeb, 0x35, 0xa8, 0xf4, 0x01, 0xfb, 0xcf, 0xdf, 0xfc,
  0xdb, 0x38, 0x96, 0xbd, 0xd9, 0x41, 0xab, 0x9e, 0x17, 0xd6, 0x00, 0xb2,
  0xef, 0xbd, 0x31, 0xc1, 0x9a, 0xb0, 0x39, 0xc2, 0xff, 0xc7, 0xcc, 0xcf,
  0x2b, 0x94, 0xa0, 0xc1, 0xf1, 0xdc, 0x2a, 0x26, 0x32, 0xd3, 0xed, 0x98,
  0xd5, 0x1b, 0x81, 0x1b, 0xfc, 0xb7, 0x94, 0x26, 0x93, 0x01, 0x03, 0x94,
  0x22, 0xac, 0x1b, 0xde, 0x15, 0x2b, 0x96, 0xa4, 0x28, 0xdf, 0x94, 0x3c,
  0xda, 0x32, 0xea, 0x2b, 0xd1, 0xf0, 0xde, 0xf3, 0xf4, 0x18, 0xeb, 0x3d,
  0x95, 0xd3, 0xe3, 0x14, 0x11, 0xb3, 0x44, 0x00, 0xff, 0xad, 0x9a, 0xd6,
  0x39, 0xe3, 0xf1, 0x20, 0xeb, 0xf3, 0xff, 0x8e, 0x24, 0x27, 0x28, 0x94,
  0x24, 0xcc, 0xde, 0xf4, 0xa0, 0xb0, 0xfe, 0xf0, 0x28, 0xfe, 0x93, 0x12,
  0x1b, 0xac, 0xd7, 0xb4, 0xb7, 0x9e, 0x32, 0xb6, 0x25, 0xa5, 0x32, 0xe0,
  0x9e, 0xf1, 0x19, 0xd7, 0xa9, 0xbc, 0xf3, 0xce, 0x29, 0xef, 0xb5, 0xd4,
  0xae, 0xa6, 0xf0, 0xee, 0xa7, 0xe3, 0x9b, 0xe2, 0xd5, 0xc5, 0xd0, 0xce,
  0x37, 0x07, 0x1f, 0xe9, 0xe6, 0x28, 0xd6, 0xaa, 0xaf, 0x21, 0xf1, 0x43,
  0xca, 0x14, 0xa3, 0xa2, 0x32, 0xb0, 0x1a, 0x9b, 0xf3, 0x0d, 0x81, 0x89,
  0x8d, 0x90, 0xfb, 0x18, 0xc6, 0x9d, 0xc2, 0xcc, 0x99, 0x40, 0x24, 0x0b,
  0x1c, 0x22, 0xe4, 0xf4, 0x96, 0x2e, 0xfa, 0xb9, 0x3c, 0x05, 0xb5, 0xe6,
  0x29, 0xf3, 0xa3, 0x18, 0xe4, 0xe7, 0x95, 0xbc, 0x9c, 0x88, 0x39, 0xab,
  0xf7, 0x89, 0xeb, 0x26, 0xfd, 0x25, 0xcb, 0x9d, 0x34, 0x98, 0xcf, 0x3f,
  0xae, 0xe7, 0x88, 0x1d, 0xc7, 0xb6, 0xb9, 0xc0, 0x08, 0x07, 0xc9, 0x10,
  0x28, 0x8f, 0xda, 0xd1, 0xc7, 0x19, 0x02, 0x1d, 0xab, 0x34, 0x99, 0xe3,
  0xb2, 0x24, 0x14, 0x87, 0xc8, 0x9e, 0xef, 0xb9, 0x2f, 0x33, 0xb2, 0x94,
  0x26, 0xf8, 0xda, 0xe0, 0x20, 0xa6, 0xad, 0xf1, 0x2f, 0x23, 0xa0, 0xff,
  0xbc, 0xbd, 0x2e, 0xb6, 0x2e, 0x81, 0x10, 0x9c, 0xcc, 0x9b, 0xff, 0xfe,
  0x24, 0x2c, 0xa0, 0x03, 0xf3, 0xf4, 0x18, 0x16, 0xcb, 0x90, 0x90, 0x17,
  0xd5, 0xbc, 0x8d, 0x3a, 0xdd, 0x23, 0x26, 0xa1, 0xbb, 0xf1, 0x9b, 0x92,
  0xa6, 0x9c, 0x01, 0xc7, 0x26, 0x92, 0x0e, 0xed, 0xb1, 0xb4, 0x16, 0x87,
  0x0b, 0x12, 0xa4, 0xc9, 0x9c, 0x04, 0xb9, 0xef, 0x3b, 0x99, 0x90, 0xf6,
  0x1f, 0x17, 0x9a, 0xf0, 0xc6, 0xc3, 0xcc, 0xc6, 0x0e, 0x96, 0xfb, 0x0c,
  0x19, 0x98, 0xe4, 0x00, 0xe7, 0x06, 0x92, 0xf0, 0x1b, 0x2f, 0xa4, 0x36,
  0xeb, 0x91, 0xbc, 0x8d, 0x00, 0x10, 0xef, 0xe5, 0xfe, 0xc4, 0x1a, 0xf4,
  0x3a, 0xba, 0xa6, 0xcd, 0x34, 0xac, 0xd1, 0x3e, 0xeb, 0xed, 0x2a, 0xe8,
  0x2a, 0x32, 0x9d, 0x0c, 0x00, 0xa9, 0x86, 0x23, 0xd0, 0xcb, 0x1f, 0x12,
  0x1f, 0xa7, 0x90, 0xa6, 0x11, 0x07, 0x2a, 0xba, 0x00, 0x06, 0x15, 0xd7,
  0x31, 0xc4, 0x07, 0x25, 0xcf, 0xba, 0x20, 0xe1, 0x08, 0x10, 0xbc, 0xb4,
  0xcd, 0x2c, 0xa0, 0x2d, 0xe4, 0x05, 0xc7, 0xde, 0x9b, 0x0b, 0xc6, 0xb4,
  0x13, 0x27, 0xb7, 0xd3, 0x21, 0x22, 0x97, 0xaa, 0x13, 0xff, 0xc7, 0x1d,
  0x1c, 0x09, 0x26, 0xe7, 0xf6, 0x2a, 0x20, 0xed, 0x95, 0xf3, 0xfd, 0x87,
  0xa4, 0x9f, 0xc4, 0xfc, 0x0d, 0x94, 0x0a, 0xfd, 0xaf, 0xb9, 0x29, 0xb8,
  0xb0, 0xb0, 0x20, 0x14, 0xc4, 0xa3, 0xc5, 0xe4, 0xfa, 0x04, 0xed, 0xd0,
  0xb1, 0x8e, 0x13, 0x25, 0xca, 0xb3, 0xdf, 0xee, 0x17, 0x98, 0xd1, 0x9d,
  0x2d, 0x91, 0x85, 0x89, 0x06, 0x22, 0xff, 0x00, 0x15, 0x95, 0xd4, 0x27,
  0x97, 0xb1, 0xd8, 0x10, 0x81, 0x07, 0xed, 0xbf, 0xa2, 0xbe, 0xc2, 0x2e,
  0xab, 0xa0, 0xbc, 0x30, 0x05, 0xcd, 0x98, 0xac, 0x00, 0x07, 0x17, 0x3d,
  0x1f, 0x95, 0x02, 0x8b, 0x1f, 0xa6, 0xde, 0x22, 0x92, 0x25, 0xf7, 0x81,
  0x02, 0x9f, 0x97, 0x0a, 0xcf, 0x85, 0x25, 0xf1, 0x1f, 0x9a, 0xd8, 0xa6,
  0xbe, 0xf2, 0xe1, 0x1b, 0x1c, 0x9a, 0x37, 0x28, 0xc8, 0xdf, 0x34, 0x36,
  0xc7, 0xe4, 0xaa, 0xcb, 0xd5, 0xb7, 0x02, 0xb0, 0x0d, 0xb5, 0x98, 0xf4,
  0x06, 0x28, 0xdb, 0x8b, 0xcd, 0xc1, 0xcc, 0x03, 0x2c, 0x3c, 0x3e, 0xb9,
  0xda, 0xa3, 0x0c, 0x90, 0xef, 0x98, 0x41, 0x06, 0x0a, 0xbe, 0xd9, 0xe7,
  0x08, 0xdf, 0x14, 0x53, 0x1f, 0xc9, 0xff, 0x2e, 0xe5, 0x33, 0xaa, 0x07,
  0xc2, 0xe4, 0x2c, 0xa0, 0xbd, 0xec, 0x95, 0xc8, 0x47, 0xc5, 0x18, 0x52,
  0x1b, 0x13, 0x26, 0x1a, 0x0d, 0x1e, 0xf2, 0x2a, 0x46, 0xd9, 0xe5, 0x3c,
  0xe5, 0x0c, 0x1f, 0x4b, 0x99, 0x30, 0xfd, 0x99, 0x1f, 0x03, 0x19, 0xb6,
  0xa9, 0xe9, 0xc2, 0xdd, 0xef, 0xdf, 0xaf, 0xfb, 0xad, 0x38, 0xd1, 0xf3,
  0x90, 0x3c, 0xbe, 0xa3, 0xf2, 0xcc, 0xcc, 0xff, 0xa0, 0xb5, 0xf0, 0x01,
  0xa1, 0xd2, 0xb0, 0xc8, 0x0e, 0xb3, 0x13, 0x17, 0xd6, 0xe2, 0x95, 0x12,
  0xc7, 0x18, 0x2b, 0x1b, 0xf5, 0x07, 0xe5, 0xc1, 0xb8, 0x38, 0xad, 0x92,
  0x0d, 0xaa, 0xc6, 0xfa, 0xe6, 0xfa, 0xea, 0x1a, 0x36, 0xf3, 0xfa, 0xda,
  0xd1, 0x00, 0xf7, 0x9c, 0x26, 0xbf, 0xca, 0x90, 0x18, 0x14, 0xef, 0x30,
  0xa1, 0x00, 0x8f, 0xf3, 0xb3, 0x81, 0xe5, 0xa3, 0xe2, 0xf3, 0x26, 0xd9,
  0xde, 0x0b, 0xd0, 0x9f, 0x1c, 0xa2, 0xef, 0xe3, 0x91, 0xa3, 0x93, 0xf3,
  0x00, 0x18, 0xf3, 0xc8, 0x8a, 0xf6, 0x9f, 0xbf, 0xae, 0xbf, 0x9f, 0xb8,
  0x97, 0xf5, 0xbf, 0xf7, 0x89, 0xe4, 0xef, 0x13, 0xf6, 0xb2, 0xf2, 0x15,
  0xa0, 0xd9, 0xda, 0xf3, 0xd7, 0xf2, 0xa6, 0xa4, 0xdc, 0xd7, 0x96, 0xd3,
  0xce, 0x01, 0x9b, 0xe9, 0xcc, 0xe7, 0x16, 0x94, 0x9d, 0x99, 0xc7, 0xf6,
  0x13, 0xaf, 0xf8, 0xe4, 0xf8, 0x01, 0x22, 0x18, 0xb5, 0xed, 0xd5, 0x2c,
  0xb6, 0x35, 0xf0, 0xb9, 0x08, 0xa7, 0x0e, 0xa1, 0x17, 0xe6, 0x03, 0xa4,
  0x18, 0x27, 0xd2, 0x85, 0xdb, 0x0a, 0xc9, 0xd7, 0x96, 0x25, 0x5d, 0xed,
  0xc2, 0xbd, 0xa8, 0x9f, 0xf7, 0xc5, 0x38, 0x04, 0xaf, 0xd3, 0xfc, 0xb3,
  0x91, 0x95, 0xe6, 0xf5, 0x0d, 0xb7, 0xfe, 0xea, 0x30, 0xdf, 0x17, 0xc3,
  0xff, 0xe0, 0x00, 0x27, 0xc4, 0xad, 0xb3, 0xa5, 0x2a, 0xe7, 0xc0, 0x9f,
  0xf0, 0x35, 0x23, 0xe1, 0xc1, 0xd5, 0x10, 0x2a, 0x98, 0x8d, 0xb4, 0xf3,
  0x3a, 0xac, 0xe4, 0x2c, 0xf6, 0xee, 0xc4, 0x07, 0x24, 0x0b, 0xb3, 0xcf,
  0x4a, 0xe6, 0xec, 0x12, 0x02, 0xea, 0xf9, 0x81, 0xb1, 0x15, 0x1e, 0x0c,
  0x30, 0xdf, 0xb6, 0x89, 0x24, 0xd7, 0x16, 0x07, 0x0d, 0x3d, 0xa6, 0xa6,
  0x48, 0x1e, 0x87, 0xda, 0x1a, 0x2a, 0xb3, 0xf7, 0xe9, 0x2f, 0x2d, 0x30,
  0x1b, 0x1f, 0xef, 0xbb, 0xea, 0x35, 0xde, 0xa6, 0xc6, 0x0c, 0xc1, 0xd9,
  0x93, 0xa7, 0x06, 0xa0, 0x45, 0x34, 0xa1, 0xb9, 0x1b, 0x13, 0x19, 0xad,
  0x25, 0x29, 0xed, 0xa6, 0x1f, 0xe8, 0x06, 0xdb, 0x0a, 0xea, 0xd1, 0x93,
  0x33, 0x26, 0xd9, 0x8b, 0xf0, 0xf4, 0x96, 0x9a, 0xb9, 0xdc, 0x9c, 0xfe,
  0x0c, 0x2b, 0xca, 0x9b, 0xf0, 0x98, 0x17, 0x16, 0xcb, 0xab, 0xbb, 0x98,
  0xc5, 0xb1, 0xc2, 0x30, 0x24, 0xe1, 0xfc, 0x8b, 0xf4, 0xa3, 0x33, 0x98,
  0x00, 0x8b, 0x2c, 0x1f, 0x8f, 0xa2, 0xa9, 0xa5, 0x11, 0xbb, 0x14, 0xa8,
  0x8e, 0x05, 0x16, 0xfe, 0x0c, 0x21, 0x84, 0xf0, 0x16, 0x04, 0x8b, 0xcc,
  0x9c, 0xec, 0xba, 0x84, 0xcb, 0x81, 0xeb, 0xd2, 0xc7, 0xd0, 0xd8, 0xc6,
  0xfb, 0xcc, 0x2c, 0x18, 0xf1, 0xb2, 0x0e, 0x8b, 0x18, 0x18, 0xc2, 0xfd,
  0xd4, 0xf1, 0xc0, 0x27, 0xfd, 0xa0, 0x25, 0xba, 0xb0, 0x13, 0xe8, 0x28,
  0x33, 0xe8, 0x17, 0x18, 0x3e, 0xbb, 0x0d, 0xc4, 0xbf, 0x2f, 0x0b, 0x0e,
  0xb3, 0xf7, 0x8f, 0xf5, 0xa4, 0x41, 0x01, 0xe4, 0x05, 0xb9, 0x38, 0xd0,
  0x09, 0x0f, 0xd6, 0xf2, 0xc5, 0x2f, 0x3a, 0xcd, 0x98, 0x09, 0x19, 0xe7,
  0x07, 0xa8, 0x94, 0xcc, 0x84, 0x0f, 0xc2, 0xa8, 0xec, 0x2a, 0xfc, 0x17,
  0xda, 0x90, 0x83, 0xa6, 0x03, 0xe6, 0xc3, 0x29, 0x0a, 0xf8, 0xcf, 0xca,
  0x38, 0x97, 0xa2, 0x30, 0xf8, 0xae, 0x34, 0x99, 0x09, 0xa3, 0x34, 0x95,
  0xc9, 0xd7, 0xd1, 0xb1, 0x09, 0xbf, 0x12, 0x36, 0xd3, 0x33, 0x17, 0xa3,
  0x81, 0x90, 0xaa, 0xa5, 0xb4, 0xa7, 0x98, 0xf5, 0xb6, 0x0e, 0xb2, 0xac,
  0x9e, 0xa9, 0xe6, 0x13, 0xcd, 0x1f, 0x1e, 0x3d, 0xc1, 0x24, 0x00, 0x91,
  0x29, 0xc6, 0xee, 0x0c, 0x96, 0xbc, 0xc4, 0x88, 0xde, 0x9f, 0xa5, 0xf2,
  0xac, 0xec, 0xce, 0x91, 0xab, 0x98, 0x23, 0xc4, 0x0d, 0x07, 0x97, 0x81,
  0x07, 0xc9, 0x9d, 0xc6, 0xed, 0x09, 0xc3, 0x19, 0xc7, 0xef, 0x02, 0x26,
  0x3d, 0x95, 0x13, 0x0c, 0x88, 0x35, 0xb1, 0x17, 0xe4, 0x8c, 0x9f, 0x8d,
  0x34, 0xf2, 0x03, 0xa9, 0x19, 0x93, 0xd2, 0xcf, 0x38, 0x56, 0xc7, 0xe4,
  0x9c, 0x45, 0xa8, 0x24, 0xb3, 0xd1, 0x22, 0x52, 0xb8, 0x2f, 0xf6, 0xdf,
  0xaa, 0x06, 0xea, 0x99, 0xcb, 0xbb, 0x19, 0x4e, 0xed, 0xb6, 0xe0, 0xe4,
  0xc8, 0xa8, 0xd6, 0xbf, 0x3f, 0xc3, 0xe8, 0x2e, 0x0e, 0x23, 0xb2, 0xee,
  0xbe, 0x15, 0x33, 0xc8, 0xcd, 0x12, 0xdd, 0x16, 0xcf, 0x01, 0xdb, 0xa4,
  0x1c, 0xb6, 0xa0, 0x83, 0x27, 0x0d, 0xe4, 0xda, 0xf0, 0x95, 0xe3, 0x96,
  0xb3, 0x32, 0xb4, 0x2c, 0x21, 0x8b, 0x88, 0x1c, 0x03, 0xcf, 0xc5, 0x36,
  0xaf, 0xf0, 0xb9, 0xbd, 0x24, 0x12, 0x9a, 0x2c, 0xb6, 0xcb, 0xbb, 0x2c,
  0xda, 0x17, 0xec, 0xd0, 0x02, 0x02, 0x9f, 0x08, 0x33, 0xa6, 0xba, 0xca,
  0xe8, 0x3a, 0x99, 0x09, 0x34, 0xb5, 0xb4, 0xb5, 0x08, 0xbd, 0xca, 0xf2,
  0x92, 0xde, 0xd9, 0xfd, 0xca, 0xa9, 0xf7, 0xcc, 0x04, 0x30, 0xc8, 0x81,
  0x8b, 0xcf, 0xf8, 0xbc, 0x1a, 0xc6, 0x2a, 0xc3, 0xc3, 0x0b, 0xb7, 0xcc,
  0xa5, 0xa7, 0xb5, 0xf0, 0x39, 0xb9, 0xdc, 0xff, 0xc2, 0xf5, 0x99, 0x1c,
  0xb9, 0xdf, 0xc3, 0x20, 0xe3, 0x90, 0xc8, 0x01, 0x2f, 0xf5, 0xe5, 0x1d,
  0xf8, 0xbd, 0xfe, 0x34, 0xe0, 0x1a, 0xcb, 0xaf, 0xe0, 0xf7, 0x1d, 0x2b,
  0x1b, 0x2c, 0x32, 0x37, 0x81, 0xda, 0xe1, 0x97, 0xd7, 0xe4, 0xf7, 0xb0,
  0x22, 0x07, 0x38, 0x11, 0xe5, 0x2c, 0xd1, 0xb2, 0xdf, 0x2c, 0xc1, 0x0e,
  0x09, 0xb5, 0x1f, 0xee, 0x90, 0xc1, 0xe7, 0x82, 0x99, 0xce, 0x14, 0x34,
  0x9b, 0x00, 0xc8, 0xbc, 0x1e, 0x99, 0x9b, 0xa0, 0xb8, 0xab, 0x02, 0xc6,
  0x1b, 0xde, 0xaf, 0xa1, 0x03, 0xd7, 0xb3, 0x1a, 0xc4, 0x34, 0x9e, 0xa9,
  0x2c, 0xb2, 0xbf, 0x23, 0xac, 0x16, 0xae, 0x36, 0x96, 0x27, 0x0c, 0xf5,
  0x2b, 0xe5, 0xbd, 0x94, 0xe1, 0x2d, 0xd2, 0x85, 0x29, 0x11, 0x04, 0xab,
  0x1d, 0xde, 0xf9, 0xd3, 0xc6, 0x0c, 0xdc, 0xf2, 0x26, 0x2a, 0xce, 0x01,
  0x28, 0x98, 0x21, 0x11, 0xe7, 0xb2, 0xc9, 0xfc, 0x93, 0x82, 0x2c, 0xae,
  0xcc, 0xdb, 0xa1, 0x9d, 0xb3, 0x13, 0x17, 0x8f, 0xf5, 0xa5, 0x09, 0xd5,
  0x01, 0xa6, 0x14, 0xc7, 0x90, 0xde, 0x16, 0xd8, 0xb6, 0xf3, 0xf6, 0xc3,
  0xea, 0xd0, 0x94, 0x9a, 0x10, 0x17, 0xc1, 0xc0, 0x2c, 0xa5, 0x2d, 0x81,
  0x8d, 0xae, 0xfb, 0x91, 0x18, 0xaa, 0x9a, 0xf1, 0xfb, 0xbb, 0x95, 0xc9,
  0xc4, 0x36, 0x8d, 0xd2, 0x2f, 0x10, 0xeb, 0x90, 0xae, 0x83, 0xa0, 0xd0,
  0xf0, 0xc2, 0x30, 0x39, 0xea, 0x32, 0x1e, 0xb7, 0xcd, 0x23, 0xf6, 0xf5,
  0xc3, 0xb8, 0xc5, 0x89, 0x3c, 0x0d, 0xed, 0xcc, 0xfe, 0xa5, 0x2e, 0xbb,
  0x90, 0xe1, 0x97, 0xfe, 0x81, 0xf6, 0x99, 0xa3, 0x1d, 0xaf, 0x8e, 0xc7,
  0xab, 0x2e, 0x38, 0xfb, 0xa8, 0x13, 0xc4, 0x3b, 0xd1, 0x32, 0xb1, 0x07,
  0x18, 0xb5, 0xb9, 0x1e, 0xea, 0x9a, 0xa4, 0x94, 0x2f, 0xa0, 0x92, 0x11,
  0x91, 0xcd, 0xab, 0x9b, 0xf8, 0xfc, 0xce, 0xc4, 0x9b, 0xa8, 0x3a, 0xe3,
  0x1b, 0x28, 0xbc, 0x31, 0x93, 0x10, 0xb4, 0x1a, 0xc8, 0xe9, 0x1e, 0x23,
  0xdc, 0xd7, 0x8a, 0xcd, 0x16, 0xe6, 0x4d, 0xa6, 0x47, 0xf8, 0xe5, 0xfe,
  0xd4, 0xfb, 0x13, 0xe2, 0xfd, 0xfd, 0x39, 0xd4, 0x96, 0xf9, 0x24, 0xb3,
  0xda, 0xbe, 0x27, 0x8c, 0x2a, 0xd1, 0xe9, 0x2f, 0xe9, 0xde, 0x38, 0xf5,
  0xcf, 0x98, 0x81, 0x29, 0xd4, 0xff, 0xb8, 0xab, 0xeb, 0xd9, 0x0e, 0x91,
  0x11, 0xb6, 0xda, 0xe4, 0xde, 0x0f, 0xf0, 0xf3, 0xe5, 0x3a, 0x3f, 0x8f,
  0x19, 0x02, 0x92, 0xa6, 0x38, 0x0d, 0xfa, 0x3b, 0xd7, 0xd5, 0x8d, 0xc0,
  0x9c, 0xfc, 0xf6, 0xf4, 0x06, 0x3e, 0xbd, 0xd1, 0x8e, 0x8b, 0x8a, 0x86,
  0xb8, 0xd2, 0xf8, 0x94, 0x09, 0xc6, 0xec, 0xf4, 0x2d, 0xb4, 0xb5, 0xa3,
  0x9d, 0xe7, 0x02, 0x88, 0x00, 0x3e, 0xd1, 0xad, 0x9e, 0xb6, 0x0d, 0x91,
  0x02, 0xa8, 0x1e, 0xab, 0xe7, 0x2e, 0x2c, 0x86, 0xbd, 0x10, 0x87, 0x2b,
  0xa0, 0xa7, 0x24, 0xd1, 0xbe, 0xaa, 0x01, 0xef, 0x01, 0x0a, 0x1c, 0x8f,
  0xf2, 0x14, 0x03, 0x00, 0x24, 0x93, 0xae, 0x34, 0xb0, 0xfa, 0xbb, 0xf7,
  0xd2, 0xb6, 0x85, 0x22, 0x2c, 0x98, 0x0f, 0xf3, 0xa9, 0x00, 0x0a, 0x19,
  0xf0, 0x01, 0x11, 0xf0, 0x0b, 0xee, 0x13, 0x08, 0xe5, 0x11, 0xf9, 0x0b,
  0x16, 0x20, 0xe6, 0xef, 0xf3, 0xe6, 0xd6, 0x18, 0x11, 0x09, 0x07, 0xd7,
  0xf3, 0xea, 0xef, 0xd5, 0xf9, 0x05, 0xf3, 0x0b, 0x0a, 0xfc, 0xef, 0x12,
  0x07, 0x12, 0xfe, 0xfd, 0x02, 0x01, 0xe8, 0xf6, 0xf3, 0xdb, 0xf4, 0x14,
  0x04, 0x19, 0x06, 0xe8, 0xf2, 0xf9, 0x02, 0x09, 0xfa, 0x1c, 0xfe, 0xfd,
  0xe3, 0x3a, 0x02, 0xe1, 0xfe, 0x14, 0x03, 0x1c, 0x0a, 0x13, 0x81, 0x09,
  0xed, 0x13, 0xf8, 0x13, 0xee, 0x15, 0x30, 0xe4, 0xee, 0xf0, 0xca, 0x1e,
  0x07, 0xe5, 0x18, 0x28, 0x14, 0xfe, 0x07, 0xfc, 0xc5, 0xf9, 0x12, 0xfc,
  0x1d, 0x09, 0x10, 0xf7, 0xfd, 0xf1, 0xd0, 0xd9, 0xff, 0x25, 0x22, 0xeb,
  0xf2, 0x22, 0xfd, 0x20, 0xf9, 0xf0, 0xe9, 0x02, 0x11, 0xf9, 0xec, 0xf6,
  0x22, 0x01, 0xea, 0xc0, 0x9b, 0x11, 0xe0, 0xad, 0xfc, 0x25, 0xb7, 0xc4,
  0xac, 0xe3, 0xaf, 0xe8, 0xb9, 0xeb, 0x04, 0xe1, 0x96, 0xe2, 0xe6, 0xff,
  0x27, 0x81, 0xd4, 0xa8, 0x86, 0xd4, 0xcd, 0xb2, 0xa2, 0x09, 0x22, 0x9e,
  0x8a, 0x25, 0x8b, 0x13, 0x30, 0xdd, 0xab, 0x0d, 0xff, 0xc7, 0x2d, 0x05,
  0xa8, 0xe7, 0xfe, 0x2a, 0xf2, 0xf6, 0x0c, 0xd5, 0xff, 0xb0, 0x02, 0xa1,
  0x1f, 0xd3, 0xaa, 0xf2, 0x0e, 0xcb, 0x33, 0xea, 0xa1, 0xbf, 0xbc, 0x90,
  0xbd, 0xe4, 0xfe, 0x0a, 0x12, 0xf2, 0xbf, 0x08, 0x98, 0xc7, 0xa0, 0xd7,
  0xe7, 0x9e, 0x20, 0x09, 0xca, 0xeb, 0x8e, 0xbc, 0xe4, 0x0b, 0x8f, 0x22,
  0xd5, 0x20, 0xa1, 0x92, 0x9d, 0xa0, 0xd7, 0xfb, 0x8a, 0xc7, 0xd8, 0xce,
  0xfa, 0xf2, 0x00, 0x1e, 0xdb, 0x26, 0xb6, 0x83, 0xa8, 0x9e, 0xfd, 0xb6,
  0xcb, 0x06, 0x1d, 0x97, 0xb9, 0xf2, 0xff, 0xc0, 0xfe, 0xc8, 0x02, 0x09,
  0xf3, 0x24, 0x09, 0x0c, 0xe8, 0xf5, 0xf5, 0x00, 0x07, 0x24, 0x07, 0xf5,
  0x04, 0xef, 0xdb, 0x06, 0x17, 0x25, 0xe0, 0x16, 0x01, 0x01, 0x9e, 0x03,
  0xec, 0xf6, 0x19, 0xe7, 0xec, 0xf9, 0x27, 0xcc, 0xf9, 0xfa, 0x1e, 0x17,
  0x1c, 0x0f, 0xcf, 0xf3, 0xf9, 0xf9, 0xfb, 0x00, 0x50, 0xd0, 0xcc, 0x00,
  0x1b, 0xd6, 0x09, 0x19, 0x25, 0xdd, 0xa3, 0xf7, 0x0e, 0x04, 0xff, 0x01,
  0xea, 0xfe, 0xe9, 0xf5, 0x09, 0x01, 0xf6, 0xe7, 0x2e, 0x0c, 0x14, 0xf4,
  0x3d, 0xfb, 0xda, 0xfd, 0x38, 0xe6, 0xe2, 0x0e, 0x11, 0xd5, 0xdb, 0xf5,
  0xd3, 0x07, 0xe6, 0x0e, 0x13, 0x04, 0x17, 0x10, 0xee, 0x4a, 0xfa, 0xfe,
  0x00, 0xfd, 0x1a, 0xec, 0xfb, 0xcb, 0xcb, 0xf4, 0x00, 0xfb, 0xea, 0x05,
  0xf2, 0xc0, 0xce, 0xe5, 0xe6, 0x22, 0x2f, 0xbb, 0x15, 0x37, 0x81, 0x15,
  0x2e, 0x07, 0x69, 0x09, 0xca, 0xfb, 0x0e, 0x9d, 0xfd, 0x18, 0x24, 0xf6,
  0xd4, 0xf2, 0xf2, 0xb2, 0xf2, 0x14, 0xf1, 0x8e, 0x9b, 0xb8, 0x2d, 0x38,
  0xb2, 0x00, 0xda, 0xb7, 0x07, 0x0f, 0x08, 0x92, 0x14, 0x2c, 0xec, 0x1d,
  0xe2, 0x1d, 0xbb, 0x0c, 0xf8, 0xb3, 0x3e, 0x88, 0x03, 0x15, 0x1c, 0xbf,
  0x88, 0x09, 0x8a, 0x42, 0x22, 0x10, 0x13, 0xd0, 0x97, 0xbc, 0xd1, 0xb8,
  0xdc, 0xd4, 0xd7, 0xab, 0xdb, 0xa5, 0x93, 0x37, 0x39, 0x2a, 0x34, 0x8e,
  0xf5, 0x01, 0x81, 0x92, 0x36, 0xe1, 0xcd, 0x9e, 0x40, 0x8f, 0x19, 0x34,
  0xb5, 0xe7, 0xc8, 0x12, 0xc8, 0x9b, 0x33, 0x84, 0x86, 0xcd, 0xbd, 0x86,
  0x8a, 0x30, 0xdc, 0xf8, 0x43, 0x3a, 0xc4, 0x2b, 0xbb, 0x27, 0x00, 0xfc,
  0x25, 0x31, 0xb0, 0x2e, 0xc7, 0x05, 0x91, 0xcb, 0xee, 0xee, 0xef, 0xb5,
  0xc4, 0xe3, 0xec, 0xe6, 0x84, 0xd0, 0x3d, 0xf4, 0xe7, 0xaa, 0x44, 0xc9,
  0xc8, 0x1f, 0x88, 0x20, 0xd5, 0x8d, 0xe5, 0x20, 0xdc, 0xe8, 0x9c, 0xec,
  0xb3, 0x0c, 0x95, 0x8f, 0xb5, 0xbd, 0xc4, 0xaf, 0xa1, 0xe5, 0x16, 0xa2,
  0xb2, 0xc2, 0x9e, 0x0d, 0xa7, 0x03, 0x9a, 0xb9, 0x09, 0x3c, 0xc9, 0xf0,
  0x00, 0x9d, 0x10, 0xd3, 0xb9, 0xae, 0x3a, 0x18, 0xd1, 0xdc, 0x81, 0xa0,
  0x20, 0xa7, 0xf0, 0xcc, 0x43, 0x48, 0x14, 0xc3, 0xad, 0x8c, 0xf2, 0x24,
  0x3f, 0xdb, 0x32, 0xb8, 0x8a, 0xc0, 0xfa, 0xd0, 0x3d, 0x11, 0x04, 0x9a,
  0x2a, 0x3b, 0x25, 0xf5, 0xd2, 0x20, 0xc2, 0xd2, 0xd1, 0xb8, 0x16, 0x11,
  0x3b, 0x08, 0xaa, 0x34, 0xcf, 0x5a, 0x17, 0xac, 0x3d, 0xee, 0x10, 0x27,
  0x9a, 0xff, 0xcb, 0x3d, 0x3c, 0xf0, 0xd4, 0x9e, 0xb1, 0xa8, 0xef, 0xc9,
  0xa8, 0x39, 0x35, 0xc4, 0xd5, 0xc5, 0x1e, 0xd7, 0x14, 0xf5, 0xe8, 0xfb,
  0xbc, 0xd5, 0x12, 0xa8, 0xc7, 0x32, 0x99, 0x2f, 0xec, 0x21, 0xba, 0xa1,
  0xcf, 0xf8, 0xf1, 0xb4, 0x28, 0xc1, 0xaf, 0x9f, 0xcd, 0x35, 0x02, 0x9f,
  0x38, 0x03, 0x90, 0x98, 0x9a, 0xed, 0x10, 0xc3, 0x16, 0x9c, 0x21, 0x30,
  0x9a, 0xb5, 0xf6, 0xc3, 0xb9, 0x0a, 0x33, 0xce, 0x9b, 0xe9, 0xbf, 0xff,
  0xab, 0x05, 0xa1, 0xa8, 0x1a, 0x22, 0xf1, 0x1b, 0xe4, 0x38, 0xdc, 0x0d,
  0xc7, 0x1e, 0xc0, 0x08, 0xd5, 0x1f, 0xba, 0xb6, 0x11, 0x9c, 0xfc, 0xb6,
  0x94, 0xec, 0x19, 0x93, 0x12, 0xd1, 0x04, 0x08, 0x22, 0x93, 0xa6, 0x03,
  0xc7, 0xbe, 0x8b, 0xf4, 0xa3, 0xc5, 0xf8, 0xb8, 0xf1, 0x13, 0xae, 0xfc,
  0x92, 0x17, 0xe9, 0xfd, 0x00, 0x8b, 0xe0, 0x9c, 0xef, 0xb2, 0x9f, 0x2c,
  0x05, 0x04, 0x8a, 0xb8, 0xe9, 0xea, 0xef, 0xd6, 0xbb, 0x81, 0xf7, 0x23,
  0xe5, 0xdc, 0x18, 0xcd, 0xaf, 0xc7, 0x1c, 0x8d, 0x86, 0xdf, 0xec, 0x99,
  0xa4, 0xa5, 0xc1, 0xcf, 0xbf, 0xd1, 0xb1, 0xc0, 0x26, 0xd4, 0x8e, 0xfb,
  0xbb, 0xa4, 0x26, 0xbe, 0xf9, 0x37, 0x36, 0x11, 0x2c, 0xfb, 0xcd, 0xff,
  0x30, 0x22, 0x0b, 0x89, 0xf9, 0xbd, 0x2a, 0xe1, 0xc5, 0xc0, 0xae, 0x01,
  0xd1, 0xee, 0x10, 0xf2, 0xfd, 0xa4, 0xdf, 0x33, 0x09, 0xd4, 0xb9, 0x07,
  0xf9, 0xe4, 0x46, 0xa4, 0xb7, 0x46, 0xe3, 0x0d, 0xdc, 0xfd, 0xb3, 0x0f,
  0xde, 0xee, 0x97, 0xd0, 0x0d, 0xb8, 0x22, 0xba, 0x0c, 0xe9, 0xd4, 0x2b,
  0x21, 0xef, 0xe5, 0xbb, 0x9d, 0x38, 0x2c, 0xb6, 0x83, 0xaa, 0xb3, 0xa0,
  0x24, 0xe4, 0xbb, 0xf5, 0xe9, 0x83, 0xc7, 0x2a, 0xc5, 0x0c, 0x04, 0xdb,
  0x1d, 0x9b, 0x91, 0x92, 0xc5, 0xd9, 0xf5, 0x2a, 0x35, 0x26, 0xa5, 0xc3,
  0xc9, 0x9d, 0x19, 0x99, 0xba, 0x88, 0xca, 0x36, 0xbd, 0xfe, 0x07, 0xbf,
  0x2c, 0xdc, 0xdd, 0xb9, 0xba, 0x81, 0x43, 0x95, 0x2d, 0xf5, 0xac, 0x13,
  0xaa, 0xf4, 0x0a, 0x0d, 0x52, 0xec, 0xff, 0xff, 0x04, 0x00, 0x00, 0x00,
  0x80, 0x00, 0x00, 0x00, 0x7f, 0x8b, 0x74, 0xa3, 0x81, 0xf0, 0x88, 0x35,
  0xb1, 0x7f, 0x1b, 0xaa, 0xe6, 0x24, 0x99, 0x7f, 0xeb, 0x6c, 0x9f, 0x7f,
  0xde, 0xd9, 0xb0, 0x7f, 0x7f, 0xad, 0x22, 0xa7, 0x71, 0x81, 0xaa, 0xd7,
  0xb7, 0x06, 0x7f, 0xa6, 0xcf, 0x37, 0x81, 0xbd, 0x37, 0xe3, 0x92, 0x7f,
  0x81, 0x41, 0xa2, 0x19, 0x7f, 0x85, 0xe4, 0x74, 0x95, 0x77, 0x7f, 0xe1,
  0x3f, 0xf4, 0x7f, 0x87, 0x1d, 0x0d, 0x81, 0x2d, 0x7f, 0x24, 0xea, 0xcf,
  0x81, 0x71, 0xef, 0x2d, 0x7f, 0xae, 0x6b, 0xd0, 0x26, 0x3a, 0x07, 0x7f,
  0xd7, 0x5c, 0x21, 0x81, 0xe2, 0x03, 0x63, 0x81, 0xc9, 0x49, 0x81, 0x7d,
  0x81, 0x6c, 0xe5, 0x0a, 0xe8, 0x7f, 0xaa, 0xdb, 0xf8, 0x3e, 0x7f, 0x56,
  0x7f, 0x8f, 0xce, 0x2f, 0x70, 0x81, 0xe9, 0x05, 0x27, 0xac, 0x81, 0x7a,
  0xec, 0x32, 0x81, 0x68, 0xda, 0x0d, 0x2e, 0x81, 0x60, 0xce, 0x7f, 0x9d,
  0xde, 0xec, 0xff, 0xff, 0x04, 0x00, 0x00, 0x00, 0x40, 0x00, 0x00, 0x00,
  0x42, 0xdf, 0xcf, 0xe4, 0xdb, 0x1e, 0xcc, 0x64, 0xca, 0xdf, 0x11, 0xcf,
  0x63, 0x21, 0x5f, 0xce, 0x4c, 0xd3, 0x14, 0x09, 0x08, 0x2d, 0xcb, 0xe3,
  0xfe, 0xc4, 0xd7, 0xd6, 0xea, 0xd1, 0x74, 0x27, 0xe6, 0xc8, 0xe6, 0xfc,
  0x00, 0xd2, 0x2e, 0x20, 0xf7, 0xd9, 0xca, 0xe0, 0x01, 0x56, 0xe1, 0x0c,
  0x26, 0xc3, 0x12, 0x05, 0x0f, 0x1f, 0x3d, 0x82, 0x81, 0x11, 0x13, 0x32,
  0x1e, 0x29, 0x42, 0x2b, 0x2a, 0xed, 0xff, 0xff, 0x04, 0x00, 0x00, 0x00,
  0x00, 0x10, 0x00, 0x00, 0xe0, 0xe4, 0xe9, 0x0e, 0x00, 0x19, 0x49, 0x1c,
  0xc3, 0xf9, 0xe8, 0xec, 0x0c, 0x0e, 0x14, 0xda, 0xe4, 0xe5, 0xdd, 0x11,
  0x20, 0xff, 0xe9, 0x11, 0x0c, 0xf3, 0x18, 0x1a, 0x16, 0xe8, 0x2d, 0xde,
  0x16, 0xea, 0xca, 0xfd, 0x02, 0x0c, 0x11, 0xf1, 0x14, 0x2b, 0x05, 0xda,
  0x00, 0xdd, 0x24, 0xc1, 0x1c, 0xf4, 0xf8, 0x1e, 0xfd, 0xb8, 0xec, 0x00,
  0x00, 0x05, 0x0d, 0xf4, 0xfe, 0xe1, 0xdd, 0x1b, 0x11, 0x1a, 0xf2, 0x24,
  0x02, 0xce, 0xfd, 0x0b, 0x2a, 0x19, 0x01, 0x17, 0xfc, 0x01, 0x09, 0xed,
  0x25, 0x12, 0x1b, 0x2e, 0xda, 0xe9, 0x32, 0xe1, 0x00, 0x2d, 0x2d, 0xfd,
  0x02, 0x2a, 0xdc, 0x49, 0x12, 0x02, 0x0f, 0x21, 0x03, 0xec, 0xb3, 0xfd,
  0xee, 0xd7, 0x13, 0x1c, 0x28, 0xff, 0xeb, 0x1a, 0xd7, 0x22, 0x1b, 0xe1,
  0x2b, 0x05, 0xfc, 0x0a, 0x14, 0xc1, 0x32, 0xee, 0x13, 0x09, 0xe8, 0x07,
  0x0c, 0x13, 0xd8, 0xf3, 0xce, 0xbd, 0xe9, 0xe9, 0x27, 0x18, 0x2c, 0x0b,
  0xf3, 0xf7, 0x10, 0x13, 0x09, 0x1a, 0xf6, 0x3a, 0xea, 0x0d, 0x11, 0xdd,
  0x1f, 0xfe, 0x39, 0xe7, 0xed, 0x37, 0xef, 0x09, 0xff, 0x2c, 0x16, 0x1a,
  0xf8, 0xfa, 0xde, 0xf7, 0xcd, 0xde, 0x60, 0x29, 0x1a, 0x0e, 0xf5, 0xff,
  0xe9, 0x15, 0x18, 0xeb, 0x60, 0x3c, 0x1e, 0xed, 0xf0, 0xbe, 0xf1, 0x1f,
  0x0d, 0x1d, 0x12, 0xf7, 0xef, 0xee, 0x04, 0xf9, 0xde, 0xeb, 0xf8, 0x08,
  0x18, 0x0f, 0xe2, 0x1a, 0xff, 0xfd, 0xfb, 0x05, 0x0d, 0xfb, 0x14, 0x0f,
  0x00, 0x13, 0xfa, 0xe7, 0xed, 0x1c, 0x1e, 0xf3, 0x07, 0x0d, 0xf3, 0x16,
  0x05, 0x14, 0x1f, 0xf9, 0xfd, 0xec, 0xbe, 0xd4, 0xdc, 0xe5, 0x31, 0x39,
  0x17, 0x1c, 0xfe, 0xff, 0xf1, 0x14, 0x0b, 0xe0, 0x38, 0x24, 0xff, 0x13,
  0x00, 0xd5, 0x24, 0xfa, 0x1d, 0x01, 0xef, 0xf9, 0x02, 0xef, 0xdf, 0xf3,
  0xe2, 0xcd, 0xfe, 0xed, 0x23, 0x25, 0x0e, 0x0f, 0x22, 0xfd, 0xeb, 0x2e,
  0x05, 0x15, 0x29, 0x33, 0xd2, 0x1a, 0x15, 0xe4, 0xe4, 0x19, 0x5b, 0xe8,
  0x0d, 0x45, 0xf5, 0x1d, 0xfc, 0x03, 0xe8, 0x11, 0x02, 0xf6, 0xad, 0xdd,
  0xca, 0xea, 0x12, 0x2d, 0x16, 0xf3, 0xfd, 0x24, 0xdc, 0x3f, 0xe5, 0xd5,
  0x27, 0x30, 0x38, 0x24, 0x14, 0xaa, 0x26, 0xf4, 0xff, 0x32, 0xf7, 0x02,
  0xe6, 0x11, 0x11, 0x1a, 0xf4, 0xfb, 0xf1, 0x1b, 0xed, 0x01, 0xff, 0x11,
  0xe6, 0xf5, 0x03, 0x16, 0xea, 0xe9, 0xfb, 0xfb, 0x02, 0x0e, 0xe1, 0x13,
  0x16, 0xec, 0x1d, 0xf3, 0x03, 0x01, 0xe9, 0xe9, 0xf8, 0x18, 0xe8, 0xe6,
  0x05, 0x0f, 0x18, 0xdc, 0x1c, 0x16, 0x06, 0x12, 0xe8, 0x13, 0xf7, 0xec,
  0xf1, 0xe3, 0x08, 0xf4, 0x09, 0xd9, 0xf4, 0xfc, 0x02, 0xef, 0xde, 0xf0,
  0x0d, 0xdd, 0xff, 0x17, 0x08, 0xef, 0xd9, 0xef, 0xd9, 0xec, 0xdb, 0x13,
  0x30, 0x31, 0x1a, 0xe5, 0xe5, 0x17, 0x02, 0x03, 0x23, 0x1a, 0x0f, 0x1f,
  0xee, 0x1e, 0x09, 0xf3, 0x01, 0x27, 0x30, 0xfa, 0x0b, 0x1a, 0x06, 0x1e,
  0x0c, 0xf8, 0x1a, 0xf9, 0x18, 0xf0, 0xc1, 0xd5, 0xef, 0x01, 0x2a, 0x1b,
  0x04, 0x02, 0xe4, 0x04, 0xf3, 0xfe, 0x1d, 0xd2, 0x2b, 0x1b, 0x00, 0x15,
  0xfb, 0xcd, 0x25, 0xeb, 0x00, 0x27, 0xf4, 0xfc, 0xdc, 0x03, 0x10, 0x15,
  0x0d, 0x31, 0x1a, 0x1b, 0xd3, 0xed, 0xfe, 0x19, 0x0a, 0xe1, 0xfb, 0xd1,
  0xeb, 0x0c, 0xf9, 0x17, 0x2d, 0x13, 0xec, 0x0f, 0x05, 0x08, 0x24, 0x22,
  0x10, 0xf0, 0x0a, 0x03, 0x1c, 0xe6, 0xd5, 0x21, 0xfb, 0xe0, 0x1e, 0x08,
  0x1b, 0x07, 0xfb, 0xd5, 0xf2, 0xd8, 0x3c, 0xcb, 0x26, 0x0a, 0x17, 0x12,
  0xf5, 0xb1, 0xf1, 0xc7, 0xde, 0x0b, 0xec, 0xee, 0xec, 0xd9, 0x0f, 0xec,
  0x17, 0x1a, 0xdf, 0x12, 0xdc, 0xf1, 0xe8, 0x0b, 0x13, 0x0a, 0xe5, 0x14,
  0xef, 0x06, 0x0d, 0x22, 0x1f, 0xf6, 0x20, 0x1c, 0xff, 0x01, 0x07, 0x08,
  0x19, 0x2b, 0x1c, 0xf9, 0x18, 0x11, 0xf1, 0x03, 0xf6, 0xfa, 0x04, 0xf0,
  0xf4, 0x05, 0xba, 0xc8, 0xfb, 0xe4, 0x47, 0x01, 0x24, 0xec, 0xe5, 0x00,
  0xfd, 0x32, 0xf8, 0xda, 0x10, 0x18, 0x0f, 0x2a, 0xfe, 0xc8, 0x36, 0xff,
  0xfe, 0x32, 0xf4, 0x02, 0x27, 0x00, 0xd2, 0xfd, 0xe9, 0xd4, 0xfb, 0xeb,
  0x1b, 0x5b, 0x14, 0x00, 0xe6, 0x15, 0x05, 0x29, 0x10, 0x03, 0x24, 0x01,
  0xf6, 0xf7, 0x12, 0xe9, 0x07, 0x35, 0x37, 0xd6, 0xfb, 0x3a, 0xd1, 0x1c,
  0xe0, 0x17, 0xf9, 0xe4, 0xec, 0xe9, 0xa7, 0xe2, 0xee, 0xcd, 0x29, 0x0a,
  0x1c, 0xdf, 0xe7, 0x32, 0xe5, 0x1d, 0xf5, 0xe8, 0x44, 0x1a, 0x2e, 0x20,
  0x1c, 0xd7, 0x36, 0x05, 0x12, 0x3d, 0x0f, 0xee, 0xfa, 0x13, 0xfd, 0x0e,
  0xfd, 0xe3, 0xf6, 0x14, 0x0d, 0xd8, 0x15, 0xef, 0xf6, 0xf9, 0xf0, 0x08,
  0xf5, 0xf7, 0xd9, 0x06, 0x0d, 0xeb, 0xfa, 0xe8, 0x0d, 0x10, 0x01, 0xf5,
  0xf5, 0xf9, 0x14, 0xf3, 0xf1, 0x19, 0x0c, 0x12, 0x10, 0xec, 0x0f, 0xe8,
  0xfd, 0xe9, 0xde, 0xda, 0x0f, 0x14, 0xe2, 0xf3, 0xed, 0x07, 0xf1, 0x04,
  0x13, 0xf9, 0x08, 0xdc, 0xe7, 0xff, 0xba, 0xe4, 0x10, 0xee, 0xfd, 0x11,
  0x11, 0xf3, 0xd9, 0x21, 0x0e, 0xf5, 0xe9, 0x04, 0x0f, 0x26, 0x10, 0x0e,
  0xeb, 0xfb, 0xfe, 0x16, 0x13, 0xfa, 0x05, 0x06, 0xe1, 0xeb, 0xfa, 0xe4,
  0xeb, 0x20, 0x27, 0xf4, 0xf8, 0x2a, 0x05, 0x21, 0xfb, 0xff, 0x11, 0x1a,
  0x0b, 0xef, 0xc3, 0xe1, 0xf9, 0xe6, 0x40, 0x24, 0x22, 0xff, 0xd8, 0x04,
  0xdf, 0x1b, 0xea, 0xd1, 0x1f, 0x06, 0x1c, 0x12, 0x0f, 0xdc, 0x0c, 0x06,
  0xfd, 0x14, 0xf8, 0x1f, 0xeb, 0xf8, 0xf4, 0x02, 0x09, 0x2b, 0x33, 0x22,
  0xb3, 0xfe, 0xe7, 0x0a, 0xe9, 0x02, 0x16, 0xe8, 0xb3, 0xe0, 0xc8, 0x1e,
  0x2b, 0xdc, 0xfa, 0x0e, 0xee, 0xd1, 0x2b, 0x21, 0x11, 0x19, 0x15, 0xff,
  0x25, 0xbd, 0xce, 0x0f, 0xed, 0x0f, 0x36, 0x1f, 0x1b, 0x31, 0x13, 0xf7,
  0xf8, 0xc0, 0x33, 0xbb, 0x03, 0xf0, 0xea, 0x1e, 0xc3, 0xb8, 0xf7, 0xf5,
  0xff, 0x13, 0x04, 0x11, 0xf1, 0xd0, 0xec, 0xf9, 0xe9, 0xfe, 0x08, 0xf5,
  0x07, 0xe7, 0xfe, 0x10, 0xfc, 0xf8, 0xfe, 0x01, 0xec, 0xed, 0x03, 0xef,
  0xf9, 0xf1, 0xec, 0xe7, 0xf2, 0x16, 0x17, 0x0b, 0x13, 0x14, 0xfe, 0xea,
  0xe6, 0x07, 0xe0, 0xf8, 0xfe, 0xe1, 0xfd, 0x13, 0xf9, 0x10, 0x02, 0x0f,
  0xff, 0xf9, 0x09, 0x12, 0xec, 0xf5, 0xde, 0xf3, 0xe3, 0xfd, 0xe8, 0x13,
  0x02, 0x0e, 0xe4, 0xea, 0x03, 0x03, 0xf9, 0x08, 0xf7, 0xf0, 0xfc, 0x00,
  0x0c, 0xf3, 0x18, 0xe9, 0x03, 0x3a, 0x2c, 0xfd, 0xe4, 0x16, 0xfe, 0x01,
  0xd3, 0x07, 0xf6, 0xc6, 0xe9, 0xf2, 0xf0, 0x26, 0x35, 0x16, 0xe5, 0x1d,
  0xf3, 0xfa, 0x29, 0x1a, 0x28, 0xf5, 0x04, 0x12, 0xf8, 0xe9, 0xea, 0x1a,
  0xf3, 0x02, 0x33, 0x15, 0x13, 0x3c, 0xfe, 0xc7, 0xfd, 0xd0, 0x43, 0xca,
  0x15, 0xf9, 0x0d, 0x12, 0xdd, 0xc1, 0xdc, 0xbf, 0xc0, 0x34, 0xe9, 0xf9,
  0xee, 0xd5, 0xf0, 0x08, 0x27, 0x0f, 0x04, 0x05, 0xdc, 0xe4, 0xd8, 0xf0,
  0x25, 0x3a, 0xed, 0xdf, 0x0a, 0x09, 0xff, 0x21, 0x0b, 0x06, 0x35, 0x15,
  0xeb, 0xff, 0x11, 0xf6, 0x05, 0x13, 0x32, 0xf9, 0xe8, 0x0a, 0xf3, 0x22,
  0x2c, 0x04, 0x16, 0x00, 0xf7, 0x13, 0xd1, 0xdb, 0xde, 0xec, 0x25, 0x05,
  0x24, 0x0f, 0xe2, 0x2c, 0xe6, 0x19, 0xf8, 0xc8, 0x11, 0x24, 0x0c, 0x1a,
  0x07, 0xcf, 0x28, 0x00, 0x12, 0x2b, 0xf7, 0x01, 0xf0, 0xf9, 0xe6, 0xfc,
  0xfd, 0x23, 0x26, 0x2c, 0xda, 0xf4, 0xe4, 0x10, 0xf6, 0xfb, 0xfc, 0xf2,
  0xde, 0xf6, 0x07, 0x06, 0x38, 0x00, 0xdf, 0x01, 0xdf, 0xee, 0x1f, 0x2b,
  0xe8, 0x2b, 0x05, 0x13, 0x06, 0xe8, 0xeb, 0xf7, 0xe4, 0xe3, 0x1c, 0xbc,
  0x06, 0x31, 0x0e, 0xf9, 0xe0, 0xcc, 0x1a, 0xdf, 0x2f, 0xf3, 0x04, 0x22,
  0xe9, 0xd1, 0xea, 0xe6, 0xde, 0x30, 0x0a, 0xfb, 0xfc, 0xe0, 0x10, 0x20,
  0x20, 0x06, 0xf4, 0x1a, 0xfa, 0xb5, 0x06, 0x07, 0x28, 0x18, 0xe4, 0x0c,
  0xf4, 0xfc, 0xeb, 0x00, 0x10, 0xf8, 0x1b, 0x2f, 0xf4, 0xf9, 0xfc, 0xf2,
  0x12, 0x22, 0x24, 0xdb, 0x12, 0x23, 0xdc, 0x07, 0x1d, 0x0c, 0xf5, 0xda,
  0xe8, 0x02, 0xd7, 0xe2, 0xe8, 0xdf, 0x2e, 0x0c, 0x1e, 0xf9, 0xe6, 0x1b,
  0xe9, 0xf3, 0xea, 0xc9, 0x3c, 0x08, 0x19, 0x29, 0x1a, 0xb1, 0x09, 0xef,
  0x1f, 0x03, 0xfb, 0xfb, 0x0d, 0x15, 0x02, 0xf2, 0x02, 0xe8, 0xeb, 0x00,
  0xff, 0x03, 0x0c, 0x1c, 0xfb, 0xec, 0x1d, 0xff, 0x18, 0x16, 0xeb, 0x03,
  0xe2, 0x09, 0x02, 0xde, 0xea, 0x04, 0xf3, 0x13, 0x14, 0x1a, 0x0e, 0x09,
  0xe3, 0xe7, 0xe4, 0xed, 0xf8, 0x05, 0xef, 0xfb, 0xe6, 0xee, 0x0b, 0xfe,
  0xe8, 0x14, 0xed, 0xf9, 0xe9, 0x15, 0xea, 0xf3, 0x14, 0xf8, 0xf6, 0xfe,
  0xf1, 0x16, 0xeb, 0xe8, 0x04, 0xf9, 0xe3, 0x03, 0xf9, 0xf3, 0xf8, 0xec,
  0x02, 0xe8, 0x10, 0x0d, 0xea, 0x0b, 0xf9, 0xf7, 0x0d, 0xfd, 0xfe, 0xef,
  0x08, 0xea, 0xf9, 0xfc, 0xf1, 0x16, 0xeb, 0x0f, 0xe3, 0xe4, 0x1b, 0xf7,
  0x17, 0xe3, 0xe9, 0x15, 0xe6, 0x00, 0xf6, 0x12, 0xeb, 0xe0, 0x07, 0x0c,
  0xe5, 0x19, 0xed, 0x15, 0xe6, 0xe4, 0x15, 0x0c, 0xed, 0x14, 0xea, 0x09,
  0x0c, 0xe8, 0xfb, 0x09, 0xe0, 0xec, 0xec, 0x14, 0x0f, 0x08, 0xee, 0x12,
  0xf7, 0x09, 0xfd, 0xf6, 0x01, 0xe7, 0x00, 0x00, 0xfc, 0xeb, 0x02, 0x01,
  0xf6, 0x19, 0xf0, 0x0e, 0x09, 0xea, 0xe4, 0xe1, 0xf1, 0x07, 0x01, 0xf0,
  0xe9, 0xe4, 0x07, 0xf1, 0xf2, 0xe9, 0x09, 0xe9, 0xfc, 0x04, 0xe8, 0x15,
  0x04, 0xf3, 0xf9, 0x12, 0x0f, 0xea, 0xe6, 0x0c, 0xe4, 0x0f, 0xff, 0xee,
  0xf9, 0xf5, 0x0e, 0x05, 0x19, 0x00, 0xee, 0x0b, 0xe0, 0xf1, 0x07, 0x11,
  0x13, 0x12, 0x15, 0xfb, 0x07, 0x13, 0xf6, 0x08, 0xfa, 0xe7, 0x0c, 0x16,
  0xf0, 0xee, 0xf5, 0x04, 0x11, 0xee, 0xf8, 0x09, 0xe2, 0xe4, 0x08, 0x06,
  0xfe, 0x14, 0x15, 0x01, 0xf8, 0xe7, 0xe6, 0x12, 0xfd, 0x1a, 0x0f, 0x02,
  0x15, 0xfb, 0x0d, 0x1b, 0x0b, 0x16, 0xe3, 0x0b, 0x02, 0xf8, 0x16, 0xfc,
  0xdd, 0xea, 0xe6, 0xed, 0xe3, 0x12, 0xfb, 0x11, 0x08, 0xf5, 0x04, 0xe1,
  0xee, 0xe5, 0xf4, 0x04, 0x04, 0x04, 0xf1, 0x1b, 0x15, 0xfa, 0xef, 0x16,
  0xf0, 0xd7, 0xe5, 0x1e, 0xf4, 0x1c, 0x14, 0x14, 0xf4, 0x0d, 0x00, 0x27,
  0x0d, 0xdc, 0x04, 0x2c, 0xda, 0xea, 0x28, 0xe7, 0x14, 0x0a, 0x66, 0xf1,
  0x0e, 0x16, 0xed, 0x44, 0xfb, 0xe5, 0xe2, 0xef, 0x16, 0x01, 0xb0, 0x02,
  0xdf, 0xaf, 0x65, 0x1c, 0x06, 0x0b, 0x0f, 0xf5, 0xf0, 0x16, 0x16, 0xfa,
  0x26, 0x0f, 0x35, 0xfe, 0x1c, 0xd9, 0x25, 0x02, 0xf7, 0x33, 0x1c, 0x0c,
  0x1a, 0xf7, 0xe1, 0x01, 0xf4, 0xe5, 0xd8, 0xea, 0x27, 0x4c, 0xfd, 0xe6,
  0xda, 0x01, 0xf8, 0x03, 0x2e, 0xfa, 0x04, 0x11, 0xe9, 0x17, 0x0d, 0xf8,
  0xf4, 0x3e, 0x30, 0x00, 0xfd, 0x04, 0xd5, 0xff, 0xf5, 0xf5, 0x06, 0x0a,
  0xfe, 0x13, 0xac, 0xe0, 0xc9, 0xe7, 0x57, 0x1f, 0x12, 0xfc, 0xe8, 0x0b,
  0xe1, 0x35, 0xe2, 0xc6, 0x21, 0x1f, 0x18, 0x20, 0xfc, 0xb1, 0x48, 0xed,
  0x1e, 0x09, 0xff, 0x11, 0xe8, 0x14, 0xe2, 0xf7, 0x03, 0xf2, 0x0c, 0x03,
  0x14, 0xe3, 0xec, 0xed, 0x03, 0xf9, 0x1a, 0x0c, 0xef, 0xe4, 0xfa, 0x10,
  0x12, 0xfc, 0xf5, 0xf6, 0x10, 0xdf, 0x09, 0x01, 0x00, 0xde, 0xeb, 0x14,
  0xf4, 0xf3, 0xdb, 0xed, 0xff, 0x0f, 0xf1, 0x0d, 0xf9, 0xeb, 0x12, 0x0e,
  0x09, 0x01, 0xef, 0xe2, 0xe6, 0xe2, 0xfa, 0x0b, 0x09, 0x14, 0x0c, 0xf5,
  0xe6, 0xdf, 0xfd, 0xed, 0xdb, 0x0d, 0x0f, 0xe9, 0x12, 0x21, 0x13, 0x0e,
  0xf2, 0xd4, 0xd3, 0x10, 0x18, 0x12, 0x11, 0xfd, 0xe7, 0x01, 0xfd, 0x01,
  0x16, 0x0a, 0x19, 0x4d, 0x0a, 0xf8, 0x10, 0xeb, 0xff, 0x0d, 0x33, 0x00,
  0x1c, 0x13, 0xe4, 0x3c, 0x06, 0xfd, 0xf7, 0xec, 0x00, 0xf9, 0xd1, 0xda,
  0xee, 0xe2, 0x29, 0x18, 0x14, 0x1a, 0xf6, 0x19, 0xd0, 0x1c, 0x1a, 0xdc,
  0x24, 0x08, 0xef, 0x05, 0xfe, 0xc6, 0x1d, 0xfc, 0x1c, 0x43, 0x2d, 0x0a,
  0x0e, 0xfd, 0xde, 0x1c, 0x05, 0xc3, 0xed, 0x0e, 0x0d, 0x2e, 0xff, 0x0f,
  0x04, 0xf2, 0xf2, 0x27, 0x11, 0xe9, 0x27, 0x20, 0xe2, 0x1b, 0x06, 0x00,
  0xe3, 0x2b, 0x10, 0xd5, 0xdd, 0x2f, 0xf7, 0x29, 0x14, 0x1f, 0x1a, 0xfc,
  0x01, 0x1d, 0xba, 0xe3, 0xf8, 0xe3, 0x2f, 0x21, 0x1c, 0x1c, 0xe3, 0x00,
  0xfc, 0x30, 0x16, 0xda, 0x28, 0x02, 0x21, 0x03, 0xfe, 0xdc, 0x27, 0xe8,
  0x1b, 0x12, 0x08, 0x0c, 0x16, 0x02, 0xd1, 0xfd, 0xfa, 0xca, 0xea, 0x01,
  0x2c, 0x4a, 0xf2, 0xfc, 0xf8, 0xfe, 0xef, 0x10, 0x17, 0xf2, 0x33, 0x2a,
  0xfa, 0xea, 0x07, 0xf5, 0xde, 0x1f, 0x36, 0xe2, 0xde, 0x34, 0xfa, 0x1b,
  0xfc, 0x04, 0x03, 0xd7, 0x11, 0xef, 0xbb, 0xf4, 0xed, 0xe2, 0x20, 0x13,
  0x1c, 0x14, 0xe5, 0x20, 0xe0, 0x36, 0xea, 0xc8, 0x2d, 0x20, 0x0f, 0x0d,
  0x35, 0xa4, 0x17, 0x14, 0x06, 0x32, 0x22, 0xf2, 0x2d, 0xe8, 0xf2, 0x17,
  0xf5, 0xb3, 0xd6, 0x32, 0xea, 0x33, 0x15, 0x01, 0x03, 0x05, 0x08, 0x2d,
  0x24, 0x09, 0x1f, 0x17, 0xd6, 0xf1, 0x04, 0xe1, 0x06, 0x36, 0x36, 0xd6,
  0x08, 0x0d, 0xcb, 0x02, 0x07, 0x11, 0x1f, 0x0d, 0x00, 0xfe, 0xbd, 0xc2,
  0xe7, 0xc6, 0x3c, 0x1c, 0x29, 0x03, 0xf9, 0x25, 0xeb, 0x09, 0xfc, 0xae,
  0x2c, 0x1e, 0x1d, 0x08, 0x2d, 0xa4, 0x45, 0x02, 0x02, 0x2b, 0x07, 0xed,
  0xf7, 0xfe, 0xe6, 0x10, 0xec, 0xdc, 0xf1, 0x13, 0x2d, 0x2b, 0x05, 0x0a,
  0xf9, 0xf9, 0x0d, 0x01, 0x15, 0xe9, 0x16, 0x1b, 0xe6, 0x18, 0x16, 0x08,
  0x09, 0x15, 0xf6, 0xdb, 0xf5, 0x1b, 0xff, 0x0d, 0xf2, 0x00, 0x1c, 0xff,
  0x15, 0x17, 0xd6, 0xd9, 0xcc, 0xd9, 0x1f, 0x2a, 0x20, 0x0e, 0xf6, 0x0a,
  0xe0, 0x25, 0xf9, 0xdf, 0x2d, 0x2d, 0x20, 0x03, 0x0d, 0xc8, 0x1f, 0xf0,
  0x10, 0x32, 0x16, 0x09, 0x0f, 0xce, 0xa4, 0x05, 0x10, 0xd8, 0x3b, 0x09,
  0xb9, 0xfd, 0x0c, 0x1a, 0xee, 0x1c, 0x12, 0xe2, 0xea, 0x10, 0x01, 0x0c,
  0x21, 0x14, 0xe9, 0xfb, 0xed, 0xfb, 0xfc, 0x18, 0xf1, 0x17, 0x37, 0x01,
  0xfc, 0xc3, 0xcf, 0x00, 0xe6, 0xee, 0x19, 0xf3, 0xf5, 0x28, 0x06, 0xec,
  0xe3, 0xc9, 0x4a, 0xdf, 0x32, 0xda, 0x11, 0x07, 0xc3, 0xd2, 0xf0, 0xe9,
  0xe6, 0x2b, 0xe7, 0xf5, 0xdf, 0xc1, 0x0d, 0xf4, 0x14, 0xe4, 0xfe, 0x07,
  0x04, 0xe8, 0xee, 0x16, 0x01, 0xfa, 0xeb, 0xf1, 0x07, 0xe4, 0xf3, 0xf4,
  0xf0, 0x11, 0xf9, 0x1a, 0xe6, 0x14, 0xf7, 0xe3, 0x16, 0x08, 0xe9, 0xe6,
  0xfa, 0x16, 0x18, 0x05, 0xea, 0x11, 0x10, 0x05, 0xf6, 0xe4, 0xf9, 0xf6,
  0x03, 0xf9, 0x19, 0xf6, 0xe1, 0xe1, 0xe3, 0x14, 0xfa, 0x15, 0xea, 0x04,
  0xfd, 0x12, 0xeb, 0x11, 0xe6, 0xe9, 0xf4, 0x01, 0x10, 0x01, 0x15, 0xef,
  0x15, 0x0e, 0xd4, 0xff, 0xe9, 0xb1, 0xf2, 0xf8, 0x34, 0x31, 0xdb, 0xe6,
  0xe5, 0xee, 0x03, 0x0c, 0x3f, 0x14, 0x2d, 0xff, 0xe0, 0x0d, 0x1a, 0xf3,
  0x08, 0x24, 0x07, 0xd7, 0x07, 0x2a, 0xd6, 0x2b, 0xeb, 0x12, 0x0a, 0x0a,
  0xea, 0x0d, 0xc7, 0xce, 0xdd, 0xc9, 0x26, 0x53, 0x26, 0xf3, 0xe6, 0x24,
  0xe5, 0x34, 0xfc, 0xe5, 0x0c, 0x3a, 0x0c, 0x00, 0x0c, 0xc3, 0x21, 0xf6,
  0x0f, 0x27, 0x03, 0x05, 0x1f, 0x1c, 0xcc, 0xf1, 0xf8, 0xbc, 0xf9, 0x2b,
  0x15, 0x3a, 0x0e, 0x0c, 0xfd, 0xec, 0xec, 0x27, 0x09, 0xf6, 0x22, 0x12,
  0xeb, 0x1f, 0x04, 0xee, 0x0e, 0x1e, 0x15, 0xf9, 0x0e, 0x0f, 0xde, 0x3a,
  0x19, 0xf4, 0xf4, 0xff, 0xee, 0xef, 0xb4, 0xcd, 0xd7, 0xec, 0x37, 0x0f,
  0x1f, 0x0e, 0xe5, 0x04, 0xfb, 0x1e, 0x15, 0xc8, 0x46, 0x2f, 0x0e, 0x0b,
  0xfc, 0xd4, 0x2e, 0xf1, 0x12, 0x25, 0xfa, 0xea, 0x1a, 0x14, 0x02, 0x13,
  0xfe, 0xbc, 0xcf, 0x0a, 0xf4, 0x3a, 0x16, 0x00, 0xef, 0xfe, 0x08, 0x1d,
  0x23, 0xf8, 0x2e, 0x1d, 0xea, 0x05, 0x26, 0xe2, 0xfe, 0x2a, 0x1c, 0xe4,
  0xe7, 0x2d, 0xf7, 0x36, 0xe9, 0xf2, 0xf7, 0x0a, 0xe4, 0x12, 0xc4, 0xc4,
  0xd8, 0xda, 0x41, 0x2d, 0x17, 0xea, 0xc3, 0x19, 0xe7, 0x09, 0x08, 0xda,
  0x28, 0x0a, 0x23, 0x01, 0xff, 0xc7, 0x17, 0x0a, 0x04, 0x4c, 0x16, 0x15,
  0xf7, 0xe3, 0x18, 0x00, 0xf5, 0xe5, 0xf8, 0x11, 0x04, 0xec, 0x08, 0xf4,
  0xed, 0xe5, 0xf2, 0x1a, 0xf6, 0x0d, 0xf3, 0x11, 0xf7, 0xfc, 0xe5, 0xe5,
  0x01, 0x09, 0x04, 0xe4, 0x12, 0xf3, 0xec, 0xf8, 0x12, 0xe6, 0xe9, 0x00,
  0x12, 0xe3, 0xe4, 0x13, 0x0b, 0x0e, 0xfe, 0xe4, 0xf5, 0x13, 0xee, 0xec,
  0x14, 0xe7, 0x12, 0x15, 0xff, 0x01, 0xee, 0xff, 0x16, 0xee, 0x02, 0x14,
  0xfc, 0xe6, 0x0d, 0xf8, 0xe4, 0xe2, 0xec, 0xe8, 0x01, 0x0d, 0x05, 0xf7,
  0xe0, 0x15, 0xea, 0x15, 0x0b, 0x0a, 0xf2, 0xe0, 0x17, 0xf6, 0x01, 0xe2,
  0x12, 0x19, 0xf9, 0xfb, 0x0d, 0x04, 0xf7, 0x06, 0xef, 0xe2, 0xed, 0xff,
  0xe3, 0x0e, 0xf5, 0xf1, 0x05, 0xf4, 0xfc, 0x13, 0xe2, 0xe6, 0xfd, 0x15,
  0xe5, 0x0d, 0xf4, 0xf7, 0x0c, 0x06, 0x00, 0xe4, 0xf9, 0xf8, 0x0c, 0xf6,
  0xe2, 0xf4, 0xe2, 0xe4, 0x0b, 0xed, 0x16, 0xed, 0xfa, 0x0f, 0xd5, 0x03,
  0xd8, 0x03, 0xfa, 0xe9, 0x13, 0xfe, 0x19, 0xe8, 0x09, 0x06, 0x1e, 0x11,
  0x00, 0x02, 0x1f, 0x07, 0xfd, 0x04, 0xfa, 0xe0, 0xe1, 0x0c, 0x2d, 0xf6,
  0x15, 0x0c, 0xe1, 0x06, 0x0c, 0x1b, 0x19, 0x04, 0xf4, 0x18, 0xd4, 0xe0,
  0xd8, 0xea, 0x39, 0x1e, 0x2a, 0xf0, 0xe1, 0x15, 0xe4, 0x1e, 0x18, 0xe0,
  0x3a, 0x34, 0x0e, 0x13, 0x0e, 0xb4, 0x07, 0xe7, 0x1a, 0x13, 0xfe, 0x08,
  0x07, 0x14, 0xe0, 0x11, 0xf4, 0x04, 0x12, 0xdb, 0x10, 0x04, 0x1b, 0xe7,
  0x13, 0x1b, 0x05, 0x02, 0xde, 0x0e, 0xfd, 0x08, 0xdf, 0xee, 0xdd, 0xdd,
  0xf4, 0xe7, 0x16, 0xe8, 0xf3, 0xe3, 0xfb, 0x01, 0x06, 0xe1, 0x02, 0xe4,
  0xf7, 0xfa, 0x01, 0xf7, 0x0e, 0x14, 0xfd, 0x09, 0xed, 0xf6, 0x06, 0xe8,
  0x00, 0xed, 0x06, 0x0e, 0x01, 0x0b, 0x10, 0xfa, 0xe0, 0x14, 0x0a, 0xf8,
  0xfc, 0xfe, 0x01, 0xf5, 0xf7, 0xfb, 0x14, 0xe5, 0x03, 0x01, 0xe6, 0x13,
  0x02, 0xe0, 0xe6, 0xf7, 0xef, 0x0f, 0xff, 0x0b, 0x0b, 0xfd, 0xe8, 0xe5,
  0xe5, 0xf1, 0x19, 0xe3, 0x05, 0xeb, 0xfb, 0xed, 0xee, 0x04, 0x07, 0x11,
  0x04, 0xfe, 0x0e, 0x14, 0xff, 0x11, 0xee, 0xfe, 0xe4, 0x17, 0xf0, 0x03,
  0x05, 0xdc, 0xde, 0x09, 0xfa, 0xf9, 0x0d, 0xf3, 0xe6, 0x11, 0xdd, 0x11,
  0xea, 0x12, 0x04, 0x03, 0xea, 0xf6, 0xe6, 0xf5, 0xea, 0x03, 0xf6, 0xf0,
  0xfc, 0xec, 0xf5, 0xdf, 0xe7, 0xf3, 0xf4, 0x07, 0xff, 0xf0, 0xeb, 0xf1,
  0xeb, 0x0d, 0xf0, 0xf0, 0xf0, 0xfe, 0x0e, 0xee, 0x00, 0xf7, 0xe9, 0xfd,
  0xf6, 0x04, 0x12, 0xff, 0x18, 0xeb, 0xe6, 0x14, 0x02, 0x14, 0xf4, 0xe4,
  0x18, 0xf4, 0xe0, 0xfa, 0x09, 0x02, 0xf0, 0xe3, 0xe5, 0x0e, 0x13, 0xfe,
  0xf7, 0x00, 0xef, 0xe5, 0xe2, 0x05, 0x0e, 0x17, 0xfd, 0x09, 0xe3, 0x12,
  0x12, 0xf5, 0xdb, 0x0e, 0x04, 0xef, 0xfa, 0x13, 0x10, 0x1b, 0xe0, 0x0f,
  0xf1, 0xf6, 0x02, 0x1d, 0xfe, 0xfe, 0x19, 0x22, 0xde, 0xe8, 0x0b, 0xe9,
  0x02, 0x09, 0x31, 0xd7, 0x08, 0x1b, 0xf9, 0x3b, 0x26, 0xfb, 0xfc, 0x01,
  0xf7, 0x04, 0xc7, 0xe0, 0xee, 0xed, 0x2c, 0x18, 0x30, 0xf9, 0xdc, 0x05,
  0x00, 0x26, 0xfa, 0xc0, 0x23, 0x12, 0x14, 0x39, 0x1c, 0xc3, 0x2c, 0xdc,
  0x1f, 0x03, 0xfc, 0x16, 0x04, 0x0a, 0xdc, 0x10, 0xe4, 0xc0, 0x12, 0xf7,
  0x34, 0x36, 0x30, 0xf4, 0xe3, 0x03, 0xea, 0xf4, 0x21, 0xed, 0x04, 0x1c,
  0xfc, 0xf3, 0x0a, 0xee, 0x17, 0x22, 0x1e, 0x05, 0x1f, 0x32, 0xe6, 0x00,
  0xf3, 0x0b, 0xf3, 0x02, 0xe9, 0x04, 0xca, 0xe3, 0xda, 0xfd, 0x4e, 0x29,
  0x04, 0xe8, 0xd7, 0x21, 0xc3, 0x21, 0x02, 0xdc, 0x5f, 0x33, 0x16, 0x18,
  0x16, 0xd2, 0x05, 0x10, 0x0a, 0x3b, 0xf0, 0xef, 0x3d, 0x10, 0xdf, 0xea,
  0xf9, 0xc6, 0xfd, 0xfe, 0x14, 0x2e, 0xe1, 0x04, 0xe0, 0x14, 0x11, 0x1d,
  0x43, 0x02, 0x19, 0x14, 0xcb, 0x0c, 0x33, 0xec, 0xf5, 0x33, 0x1d, 0xf1,
  0x12, 0x37, 0xcb, 0x25, 0xeb, 0x06, 0x12, 0xe0, 0x04, 0x14, 0x97, 0xd2,
  0xe0, 0xe4, 0x24, 0x25, 0x36, 0x04, 0xfc, 0x0f, 0xeb, 0x30, 0x12, 0xd6,
  0x23, 0x18, 0x1a, 0x08, 0x14, 0xae, 0x3a, 0xee, 0x04, 0x23, 0x0b, 0xe7,
  0x18, 0x0d, 0x07, 0x06, 0x09, 0xf6, 0x02, 0xfa, 0x06, 0xf3, 0x0d, 0xe6,
  0x0c, 0xfa, 0x1b, 0x06, 0x0a, 0x15, 0x0e, 0x14, 0x05, 0xe8, 0xeb, 0x0a,
  0xeb, 0xee, 0x03, 0xf1, 0x0b, 0xe2, 0xe8, 0x17, 0x05, 0xee, 0xec, 0x05,
  0xed, 0x0c, 0xf0, 0x04, 0x14, 0xee, 0xfd, 0xf5, 0xea, 0xe8, 0xf3, 0x14,
  0x0b, 0x13, 0x15, 0xeb, 0x0f, 0x0b, 0xe6, 0xe9, 0xe9, 0xf1, 0x08, 0xe3,
  0x0c, 0xf6, 0x16, 0xfb, 0xf7, 0x06, 0x24, 0x15, 0x06, 0x41, 0x2f, 0xd8,
  0xe1, 0x00, 0x00, 0xf5, 0xf6, 0x01, 0xf3, 0xe5, 0xec, 0x0f, 0xdd, 0x0d,
  0x34, 0x07, 0xc5, 0x1f, 0xef, 0xeb, 0x1c, 0x04, 0xfe, 0x04, 0x04, 0x0b,
  0x02, 0xdb, 0xea, 0x0c, 0xeb, 0x04, 0x36, 0x0a, 0x0f, 0x0f, 0xe7, 0xe5,
  0x0f, 0xec, 0x49, 0xd1, 0x31, 0x05, 0xf3, 0x30, 0xf0, 0xd1, 0xca, 0xd7,
  0xce, 0xfe, 0xe1, 0xf6, 0xcb, 0xd5, 0xef, 0xff, 0xee, 0xf9, 0x08, 0x22,
  0x01, 0x01, 0xda, 0xee, 0xdd, 0x05, 0x0b, 0xf6, 0xf3, 0x06, 0xf9, 0x03,
  0x03, 0xff, 0xea, 0xf6, 0xdf, 0xfa, 0xea, 0xf9, 0x13, 0x0a, 0xff, 0xee,
  0xfa, 0x0b, 0x0d, 0x01, 0xe7, 0x09, 0x02, 0x11, 0x04, 0x05, 0x0b, 0x10,
  0xef, 0x09, 0x00, 0x14, 0xf2, 0xeb, 0xed, 0xfd, 0xe8, 0x0f, 0xf3, 0x0d,
  0x18, 0xe3, 0xec, 0xf4, 0x0e, 0xf9, 0xe9, 0xf5, 0xfb, 0xe7, 0x15, 0xed,
  0x09, 0xfe, 0x19, 0xdf, 0x0d, 0x0c, 0x15, 0x00, 0xf0, 0x05, 0x05, 0x10,
  0xff, 0xe7, 0x01, 0xf3, 0x01, 0xff, 0xe6, 0x13, 0xf1, 0xf5, 0x0b, 0xed,
  0x08, 0x08, 0x01, 0xf5, 0xfc, 0xe5, 0xfb, 0xfd, 0xe1, 0xf6, 0xf6, 0x11,
  0x02, 0x15, 0xed, 0xf1, 0x15, 0x05, 0xf0, 0x14, 0xf3, 0x15, 0xee, 0x03,
  0xf7, 0x17, 0x14, 0xfa, 0xf4, 0xdb, 0xec, 0xe5, 0x0f, 0x07, 0xdd, 0x03,
  0xd9, 0x14, 0xe1, 0x0f, 0x15, 0xfe, 0xf5, 0xf7, 0x00, 0xfb, 0x0c, 0xee,
  0xdd, 0xdd, 0xf5, 0xf7, 0xe7, 0x0d, 0x04, 0xec, 0xec, 0x14, 0x01, 0xf8,
  0x12, 0x05, 0x17, 0xe0, 0xff, 0xde, 0x0b, 0x11, 0x09, 0xea, 0xeb, 0x1a,
  0xe6, 0xf2, 0x07, 0xea, 0xfa, 0xed, 0x0d, 0xe2, 0xfa, 0xfc, 0xec, 0xf1,
  0xed, 0x11, 0xf9, 0x07, 0x06, 0xe2, 0xeb, 0xe5, 0x15, 0xfe, 0x00, 0xe0,
  0x17, 0x00, 0xf3, 0xdf, 0xde, 0xeb, 0xee, 0xf5, 0xf6, 0xe8, 0xc8, 0xfc,
  0x01, 0xec, 0xde, 0x10, 0x1d, 0x29, 0xfa, 0x10, 0x00, 0x16, 0xf7, 0x05,
  0x26, 0x06, 0xfa, 0x30, 0xee, 0x10, 0x1f, 0x00, 0xff, 0x1d, 0x31, 0xe2,
  0x0b, 0x12, 0xe8, 0x01, 0x11, 0x0a, 0xef, 0xec, 0xe1, 0xf2, 0xce, 0xbd,
  0xdf, 0xdf, 0x44, 0x2e, 0x23, 0xfa, 0xe2, 0x13, 0x0d, 0x20, 0x01, 0xc8,
  0x3c, 0x16, 0xff, 0x0d, 0x00, 0xcd, 0xfc, 0x08, 0x15, 0x37, 0x12, 0xee,
  0x16, 0x03, 0x04, 0x0d, 0xf6, 0xe5, 0x09, 0xee, 0x0c, 0x00, 0x02, 0xf3,
  0xf9, 0xfe, 0x11, 0x00, 0x00, 0xfc, 0x11, 0xe2, 0xe5, 0xfe, 0xe5, 0xec,
  0xe6, 0xe4, 0x1b, 0x10, 0x19, 0x09, 0xe6, 0xec, 0xee, 0x07, 0x08, 0x09,
  0x0c, 0x14, 0xeb, 0xe3, 0xf9, 0xe2, 0xe8, 0xeb, 0xf5, 0xf5, 0xea, 0xfe,
  0xf8, 0xe4, 0x06, 0x1a, 0x1b, 0xfe, 0x05, 0xff, 0x17, 0x02, 0xf8, 0xec,
  0xea, 0x0a, 0x19, 0x05, 0xd3, 0xef, 0x15, 0xf3, 0x16, 0xf9, 0xe4, 0x05,
  0xe2, 0x10, 0xf7, 0xea, 0xf3, 0x06, 0x10, 0xdc, 0xe5, 0xf5, 0xd7, 0xfb,
  0x12, 0x04, 0xe7, 0xf4, 0xe8, 0x28, 0xe3, 0xea, 0xe9, 0x17, 0x02, 0xee,
  0xe7, 0x03, 0x04, 0xf8, 0x09, 0x0a, 0xed, 0xe9, 0xf5, 0xe9, 0x09, 0xcb,
  0x28, 0xf4, 0xf1, 0x05, 0xf3, 0x18, 0xe6, 0x11, 0xef, 0x04, 0xf9, 0xdc,
  0xf3, 0x0d, 0xdc, 0xe2, 0xfa, 0xe7, 0x0e, 0xe6, 0xfa, 0xf0, 0xe5, 0xfa,
  0xf3, 0xee, 0xf4, 0x1a, 0x08, 0x0f, 0x0b, 0xf0, 0xf7, 0x1a, 0x0d, 0xf4,
  0xe3, 0x14, 0xe5, 0xfb, 0xe6, 0xee, 0xe3, 0xfe, 0xf4, 0xe4, 0xfe, 0xe3,
  0x13, 0xe5, 0x16, 0xe3, 0xfa, 0xe4, 0xef, 0xe7, 0xf8, 0xec, 0x05, 0xe9,
  0x19, 0x00, 0xe6, 0x11, 0xeb, 0xfd, 0xea, 0xff, 0x0b, 0x15, 0xf8, 0xf7,
